{
  "version": "1.0",
  "truncation": null,
  "padding": null,
  "added_tokens": [
    {
      "id": 0,
      "content": "<pad>",
      "single_word": false,
      "lstrip": false,
      "rstrip": false,
      "normalized": false,
      "special": true
    },
    {
      "id": 1,
      "content": "<unk>",
      "single_word": false,
      "lstrip": false,
      "rstrip": false,
      "normalized": false,
      "special": true
    },
    {
      "id": 2,
      "content": "<bos>",
      "single_word": false,
      "lstrip": false,
      "rstrip": false,
      "normalized": false,
      "special": true
    },
    {
      "id": 3,
      "content": "<eos>",
      "single_word": false,
      "lstrip": false,
      "rstrip": false,
      "normalized": false,
      "special": true
    }
  ],
  "normalizer": null,
  "pre_tokenizer": {
    "type": "ByteLevel",
    "add_prefix_space": false,
    "trim_offsets": true,
    "use_regex": true
  },
  "post_processor": null,
  "decoder": {
    "type": "ByteLevel",
    "add_prefix_space": true,
    "trim_offsets": true,
    "use_regex": true
  },
  "model": {
    "type": "BPE",
    "dropout": null,
    "unk_token": "<unk>",
    "continuing_subword_prefix": null,
    "end_of_word_suffix": null,
    "fuse_unk": false,
    "byte_fallback": false,
    "ignore_merges": false,
    "vocab": {
      "<pad>": 0,
      "<unk>": 1,
      "<bos>": 2,
      "<eos>": 3,
      "!": 4,
      "\"": 5,
      "$": 6,
      "'": 7,
      ",": 8,
      "-": 9,
      ".": 10,
      "0": 11,
      "1": 12,
      "2": 13,
      "3": 14,
      "4": 15,
      "5": 16,
      "6": 17,
      "7": 18,
      "8": 19,
      "9": 20,
      ":": 21,
      ";": 22,
      "?": 23,
      "A": 24,
      "B": 25,
      "C": 26,
      "D": 27,
      "E": 28,
      "F": 29,
      "G": 30,
      "H": 31,
      "I": 32,
      "J": 33,
      "K": 34,
      "L": 35,
      "M": 36,
      "N": 37,
      "O": 38,
      "P": 39,
      "Q": 40,
      "R": 41,
      "S": 42,
      "T": 43,
      "U": 44,
      "V": 45,
      "W": 46,
      "X": 47,
      "Y": 48,
      "Z": 49,
      "a": 50,
      "b": 51,
      "c": 52,
      "d": 53,
      "e": 54,
      "f": 55,
      "g": 56,
      "h": 57,
      "i": 58,
      "j": 59,
      "k": 60,
      "l": 61,
      "m": 62,
      "n": 63,
      "o": 64,
      "p": 65,
      "q": 66,
      "r": 67,
      "s": 68,
      "t": 69,
      "u": 70,
      "v": 71,
      "w": 72,
      "x": 73,
      "y": 74,
      "z": 75,
      "¡": 76,
      "¢": 77,
      "¦": 78,
      "©": 79,
      "«": 80,
      "¬": 81,
      "±": 82,
      "³": 83,
      "»": 84,
      "Â": 85,
      "Ã": 86,
      "Å": 87,
      "Ë": 88,
      "â": 89,
      "Ċ": 90,
      "Ġ": 91,
      "Ģ": 92,
      "Ĥ": 93,
      "ĥ": 94,
      "Ħ": 95,
      "ĵ": 96,
      "ľ": 97,
      "Ŀ": 98,
      "he": 99,
      "Ġt": 100,
      "Ġa": 101,
      "Ġs": 102,
      "Ġw": 103,
      "nd": 104,
      "Ġthe": 105,
      "ed": 106,
      "in": 107,
      "Ġand": 108,
      "Ġb": 109,
      "Ġto": 110,
      "Ġwa": 111,
      "Ġh": 112,
      "re": 113,
      "it": 114,
      "Ġf": 115,
      "ou": 116,
      "er": 117,
      "Ġl": 118,
      "Ġhe": 119,
      "Ġwas": 120,
      "Ġc": 121,
      "Ġd": 122,
      "Ġm": 123,
      "Ġp": 124,
      "Ġo": 125,
      "ing": 126,
      "om": 127,
      "ar": 128,
      "ay": 129,
      "is": 130,
      "Ġg": 131,
      "The": 132,
      "id": 133,
      "at": 134,
      "ll": 135,
      "en": 136,
      "Ġsa": 137,
      "ne": 138,
      "Ġha": 139,
      "im": 140,
      "le": 141,
      "ĠS": 142,
      "an": 143,
      "or": 144,
      "Ġit": 145,
      "Ġth": 146,
      "ĠThe": 147,
      "et": 148,
      "ĠH": 149,
      "il": 150,
      "on": 151,
      "Ġher": 152,
      "ir": 153,
      "ver": 154,
      "Ġin": 155,
      "Ġe": 156,
      "ĠHe": 157,
      "Ġn": 158,
      "ot": 159,
      "ld": 160,
      "ĠShe": 161,
      "ut": 162,
      "ow": 163,
      "Ġu": 164,
      "Ġbe": 165,
      "ck": 166,
      "ce": 167,
      "Ġsaid": 168,
      "Ġshe": 169,
      "ig": 170,
      "Ġst": 171,
      "oo": 172,
      "Ġso": 173,
      "pp": 174,
      "Ġr": 175,
      "Ġ\"": 176,
      "am": 177,
      "Ġy": 178,
      "ke": 179,
      "Ġof": 180,
      "ve": 181,
      "ith": 182,
      "st": 183,
      "ked": 184,
      "Ġhis": 185,
      "very": 186,
      "Ġwith": 187,
      "ri": 188,
      "Ġday": 189,
      "ĠI": 190,
      "nt": 191,
      "ad": 192,
      "Ġpl": 193,
      "Ġup": 194,
      "Ġthat": 195,
      "ĠThey": 196,
      "Ġhad": 197,
      "Ġyou": 198,
      "ily": 199,
      "itt": 200,
      "ould": 201,
      "el": 202,
      "ĠT": 203,
      "ent": 204,
      "Ġon": 205,
      "ĠĊ": 206,
      "es": 207,
      "Ġplay": 208,
      "Ġfor": 209,
      "ĠL": 210,
      "Ġthey": 211,
      "Ġwe": 212,
      "my": 213,
      "ittle": 214,
      "ound": 215,
      "un": 216,
      "out": 217,
      "Ġlittle": 218,
      "'s": 219,
      "ch": 220,
      "Ġmom": 221,
      "Ġhapp": 222,
      "ly": 223,
      "ime": 224,
      "Ġthere": 225,
      "her": 226,
      "Ġtime": 227,
      "all": 228,
      "Ġsm": 229,
      "Ġsh": 230,
      "Ġvery": 231,
      "Ġli": 232,
      "ht": 233,
      "Ġwh": 234,
      "Ġne": 235,
      "Ġre": 236,
      "ome": 237,
      "ĠB": 238,
      "al": 239,
      "Ġwant": 240,
      "se": 241,
      "Ġdo": 242,
      "end": 243,
      "ack": 244,
      "Ġk": 245,
      "Ġas": 246,
      "On": 247,
      "Ġhappy": 248,
      "Ġbig": 249,
      "Ġan": 250,
      "Ġbut": 251,
      "Once": 252,
      "ra": 253,
      "One": 254,
      "Ġsaw": 255,
      "riend": 256,
      "Ġfriend": 257,
      "ved": 258,
      "Ġloo": 259,
      "'t": 260,
      "irl": 261,
      "ore": 262,
      "ĠLily": 263,
      "ake": 264,
      "ec": 265,
      "ug": 266,
      "Ġgirl": 267,
      "ide": 268,
      "ter": 269,
      "ĠM": 270,
      "Ġbo": 271,
      "ĠIt": 272,
      "Ġwere": 273,
      "Ġex": 274,
      "ill": 275,
      "ĠJ": 276,
      "Ġupon": 277,
      "ry": 278,
      "Ġhim": 279,
      "Ġnot": 280,
      "Ġlo": 281,
      "Ġgo": 282,
      "!\"": 283,
      "Ġj": 284,
      "ard": 285,
      ".\"": 286,
      "Ġout": 287,
      "Ġsp": 288,
      "fu": 289,
      "Ġwanted": 290,
      "Ġar": 291,
      "Ġcould": 292,
      "way": 293,
      "Ġtoo": 294,
      "hen": 295,
      "ur": 296,
      "Ġis": 297,
      "Ã¢": 298,
      "âĤ": 299,
      "âĤ¬": 300,
      "hing": 301,
      "Ġse": 302,
      "ind": 303,
      "ain": 304,
      "ĠTim": 305,
      "ic": 306,
      "art": 307,
      "Ġat": 308,
      "Ġall": 309,
      "ĠA": 310,
      "hed": 311,
      "Ġwent": 312,
      "um": 313,
      "iled": 314,
      "ful": 315,
      "ight": 316,
      "rom": 317,
      "Ġsmiled": 318,
      "lp": 319,
      "Ġaround": 320,
      "Ġthem": 321,
      "Ġfriends": 322,
      "Ġhelp": 323,
      "Ġnam": 324,
      "oug": 325,
      "ood": 326,
      "Ġback": 327,
      "Ġdid": 328,
      "Ġcl": 329,
      "ark": 330,
      "omet": 331,
      "ss": 332,
      "Ġasked": 333,
      "?\"": 334,
      "Ġtheir": 335,
      "Ġca": 336,
      "Ġhave": 337,
      "Ġfun": 338,
      "Ġcan": 339,
      "Ġlooked": 340,
      "Ġsomet": 341,
      "Ġboy": 342,
      "Ġle": 343,
      "one": 344,
      "side": 345,
      "Ġstart": 346,
      "Ġal": 347,
      "ure": 348,
      "elt": 349,
      "Ġfe": 350,
      "Ġwould": 351,
      "Ġfelt": 352,
      "ick": 353,
      "op": 354,
      "Ġloved": 355,
      "Ġnamed": 356,
      "Ġno": 357,
      "dd": 358,
      "get": 359,
      "ĠOne": 360,
      "Ġare": 361,
      "ame": 362,
      "ited": 363,
      "Ġexc": 364,
      "Ġman": 365,
      "ie": 366,
      "ree": 367,
      "Ġsomething": 368,
      "king": 369,
      "ice": 370,
      "ong": 371,
      "Ġwor": 372,
      "Ġlike": 373,
      "Ġsc": 374,
      "Ġbir": 375,
      "Ġstarted": 376,
      "ro": 377,
      "Ġsome": 378,
      "gether": 379,
      "Ġag": 380,
      "Ġbird": 381,
      "Ġme": 382,
      "Ġfa": 383,
      "Ġro": 384,
      "ĠE": 385,
      "Ġsee": 386,
      "ĠTimmy": 387,
      "ade": 388,
      "ag": 389,
      "ĠW": 390,
      "own": 391,
      "pped": 392,
      "Ġaway": 393,
      "Ġexcited": 394,
      "Ġtogether": 395,
      "pl": 396,
      "ings": 397,
      "Ġran": 398,
      "oud": 399,
      "Ġtoy": 400,
      "ĠBen": 401,
      "Ġwhat": 402,
      "Ġthen": 403,
      "ared": 404,
      "Ġmake": 405,
      "Ġmu": 406,
      "ble": 407,
      "if": 408,
      "Ġhome": 409,
      "Ġla": 410,
      "You": 411,
      "Ġch": 412,
      "ally": 413,
      "Ġmade": 414,
      "Ġwal": 415,
      "qu": 416,
      "hat": 417,
      "ĠTom": 418,
      "Ġagain": 419,
      "as": 420,
      "Ġfound": 421,
      "Ġpark": 422,
      "Ġfrom": 423,
      ",\"": 424,
      "Ġdec": 425,
      "ell": 426,
      "Ġwhen": 427,
      "Ġnew": 428,
      "Ġbr": 429,
      "ous": 430,
      "Ġco": 431,
      "ep": 432,
      "Ġwho": 433,
      "ought": 434,
      "Ġevery": 435,
      "Ġot": 436,
      "Ġget": 437,
      "Ġput": 438,
      "ĠBut": 439,
      "Ġplaying": 440,
      "Ġother": 441,
      "Ġone": 442,
      "Ġsad": 443,
      "ile": 444,
      "udd": 445,
      "ided": 446,
      "Ġpr": 447,
      "Ġdecided": 448,
      "Ġfl": 449,
      "Ġcar": 450,
      "Ġold": 451,
      "ave": 452,
      "Ġv": 453,
      "Ġgot": 454,
      "Ġbu": 455,
      "Ġhug": 456,
      "bb": 457,
      "Ġsay": 458,
      "Ġgood": 459,
      "Ġthings": 460,
      "ach": 461,
      "ried": 462,
      "ĠD": 463,
      "ny": 464,
      "ust": 465,
      "Ġthan": 466,
      "eci": 467,
      "ouse": 468,
      "Ġbec": 469,
      "Ġfeel": 470,
      "Ġfind": 471,
      "Ġdown": 472,
      "udden": 473,
      "Ġke": 474,
      "Ġsw": 475,
      "Ġkn": 476,
      "Ġcame": 477,
      "ecial": 478,
      "Ġspecial": 479,
      "ways": 480,
      "Ġbl": 481,
      "uddenly": 482,
      "Ġtree": 483,
      "Ġab": 484,
      "nder": 485,
      "Ġalways": 486,
      "Ġlot": 487,
      "Ġscared": 488,
      "ue": 489,
      "Ġkne": 490,
      "Ġpo": 491,
      "ched": 492,
      "Ġtake": 493,
      "Ġthought": 494,
      "Ġint": 495,
      "ook": 496,
      "ant": 497,
      "ĠF": 498,
      "ist": 499,
      "Ġgra": 500,
      "our": 501,
      "ge": 502,
      "ite": 503,
      "Ġabout": 504,
      "Ġcare": 505,
      "Ġdad": 506,
      "Ġgr": 507,
      "Ġexpl": 508,
      "Ġtook": 509,
      "ĠEvery": 510,
      "Ġlook": 511,
      "ened": 512,
      "Ġdidn": 513,
      "fe": 514,
      "ise": 515,
      "Ġliked": 516,
      "Ġlaug": 517,
      "Åĵ": 518,
      "fter": 519,
      "uck": 520,
      "ĠYou": 521,
      "ma": 522,
      "Ġpe": 523,
      "reat": 524,
      "Ġta": 525,
      "Lily": 526,
      "Ġpa": 527,
      "Ġknew": 528,
      "ven": 529,
      "Ġdog": 530,
      "Ġho": 531,
      "Ġmore": 532,
      "Ġyour": 533,
      "Ġoutside": 534,
      "Ġtw": 535,
      "ers": 536,
      "Ġcat": 537,
      "Ġsk": 538,
      "ned": 539,
      "Ġcouldn": 540,
      "ive": 541,
      "Ġen": 542,
      "ĠJo": 543,
      "Ġhow": 544,
      "Ġmy": 545,
      "ace": 546,
      "Ġqu": 547,
      "Ġmuch": 548,
      "lly": 549,
      "by": 550,
      "ged": 551,
      "uc": 552,
      "ĠÃ¢": 553,
      "Ġsun": 554,
      "Ġmo": 555,
      "ret": 556,
      "ion": 557,
      "Ġnever": 558,
      "Ġinto": 559,
      "Ġtr": 560,
      "ara": 561,
      "Ġover": 562,
      "Ġany": 563,
      "ĠMom": 564,
      "Ġjo": 565,
      "Ġknow": 566,
      "Ġproud": 567,
      "Ġclo": 568,
      "us": 569,
      "Ġlear": 570,
      "ax": 571,
      "Ġshow": 572,
      "Ġthis": 573,
      "Ġstr": 574,
      "ough": 575,
      "ĠJack": 576,
      "hn": 577,
      "Ġif": 578,
      "Ġheard": 579,
      "Ġmommy": 580,
      "Ġsays": 581,
      "pt": 582,
      "vent": 583,
      "ish": 584,
      "Ġinside": 585,
      "ning": 586,
      "au": 587,
      "Ġcall": 588,
      "Ġad": 589,
      "Ġop": 590,
      "oth": 591,
      "Ġwill": 592,
      "Ġhouse": 593,
      "Ġfo": 594,
      "ild": 595,
      "dy": 596,
      "Ġball": 597,
      "ear": 598,
      "Ġhand": 599,
      "Ġtold": 600,
      "Ġoff": 601,
      "But": 602,
      "ort": 603,
      "sel": 604,
      "Ġgave": 605,
      "ving": 606,
      "Ġsmall": 607,
      "Ġtoys": 608,
      "other": 609,
      "âĤ¬â": 610,
      "here": 611,
      "na": 612,
      "Ġwat": 613,
      "Ġwater": 614,
      "Ġjust": 615,
      "Ġra": 616,
      "Ġbea": 617,
      "ĠSo": 618,
      "ntil": 619,
      "Ġpick": 620,
      "Ġrun": 621,
      "ause": 622,
      "ump": 623,
      "Ġcom": 624,
      "They": 625,
      "Ġuntil": 626,
      "Ġlong": 627,
      "Ġbeaut": 628,
      "urp": 629,
      "Ġtried": 630,
      "ate": 631,
      "Ġroom": 632,
      "Ġthanked": 633,
      "Ġtry": 634,
      "ady": 635,
      "Ħ¢": 636,
      "âĤ¬âĦ¢": 637,
      "Ġbecause": 638,
      "ank": 639,
      "ap": 640,
      "Ġlots": 641,
      "Ġgard": 642,
      "Ġgarden": 643,
      "etter": 644,
      "Ġplayed": 645,
      "Ġeven": 646,
      "ucy": 647,
      "Ġsl": 648,
      "Ġneed": 649,
      "Ġeat": 650,
      "ty": 651,
      "Ġby": 652,
      "ĠSam": 653,
      "ink": 654,
      "self": 655,
      "Ġbeauti": 656,
      "em": 657,
      "Ġbeautiful": 658,
      "Ġor": 659,
      "Ġcalled": 660,
      "Ġhugged": 661,
      "iz": 662,
      "Ġlaughed": 663,
      "nna": 664,
      "Ġway": 665,
      "Ġbest": 666,
      "ane": 667,
      "ct": 668,
      "Ġend": 669,
      "Ġflow": 670,
      "and": 671,
      "ered": 672,
      "ine": 673,
      "ob": 674,
      "sed": 675,
      "Ġsky": 676,
      "lew": 677,
      "Ġbear": 678,
      "ĠMax": 679,
      "rent": 680,
      "imal": 681,
      "Ġtwo": 682,
      "Ġanimal": 683,
      "ft": 684,
      "When": 685,
      "ia": 686,
      "Ġim": 687,
      "Ġpret": 688,
      "Ġexplore": 689,
      "Ġeach": 690,
      "Ġpu": 691,
      "It": 692,
      "Ġwo": 693,
      "Ġbox": 694,
      "Ġcu": 695,
      "ĠHis": 696,
      "rave": 697,
      "'m": 698,
      "Ġdon": 699,
      "He": 700,
      "Mom": 701,
      "Ġdre": 702,
      "Ġfast": 703,
      "ess": 704,
      "Ġlived": 705,
      "Ġche": 706,
      "Ġbetter": 707,
      "Ġnice": 708,
      "ĠHer": 709,
      "ect": 710,
      "Ġadvent": 711,
      "Ġfam": 712,
      "Ġkept": 713,
      "iny": 714,
      "Ġmany": 715,
      "Ġboth": 716,
      "urpr": 717,
      "Yes": 718,
      "ĠP": 719,
      "Let": 720,
      "Ġsurpr": 721,
      "Ġsmile": 722,
      "Ġcle": 723,
      "Ġkind": 724,
      "Ġjump": 725,
      "ĠSara": 726,
      "Ġstay": 727,
      "So": 728,
      "ĠC": 729,
      "ĠThen": 730,
      "Ġhard": 731,
      "Ġflew": 732,
      "are": 733,
      "Ġmum": 734,
      "Ġcome": 735,
      "Ġfin": 736,
      "fore": 737,
      "Ġrem": 738,
      "orry": 739,
      "What": 740,
      "Ġits": 741,
      "Ġfeeling": 742,
      "Ġsoon": 743,
      "Ġbrave": 744,
      "urt": 745,
      "Ġte": 746,
      "Ġgl": 747,
      "Ġwalked": 748,
      "ised": 749,
      "Ġstill": 750,
      "Ġadventure": 751,
      "ĠLucy": 752,
      "Ġfly": 753,
      "Ġfamily": 754,
      "Ġfi": 755,
      "ĠAnd": 756,
      "Ġsto": 757,
      "Th": 758,
      "Ġcol": 759,
      "igh": 760,
      "iced": 761,
      "Ġlove": 762,
      "led": 763,
      "Ġbefore": 764,
      "ĠFrom": 765,
      "Ġcareful": 766,
      "Ġlearned": 767,
      "Ġfore": 768,
      "Ġloud": 769,
      "Ġcon": 770,
      "ople": 771,
      "Ġanimals": 772,
      "Ġow": 773,
      "Ġplace": 774,
      "Ġsorry": 775,
      "ary": 776,
      "Ġwalking": 777,
      "Ġyear": 778,
      "gry": 779,
      "Ġfar": 780,
      "ip": 781,
      "ies": 782,
      "Ġunder": 783,
      "Ġsafe": 784,
      "ool": 785,
      "Ġgoing": 786,
      "Tom": 787,
      "ĠWe": 788,
      "oy": 789,
      "Ġimp": 790,
      "ied": 791,
      "Ġnow": 792,
      "illy": 793,
      "sh": 794,
      "ĠSuddenly": 795,
      "ĠWhen": 796,
      "Ġstopped": 797,
      "Ġfr": 798,
      "Ġpeople": 799,
      "Ġnoticed": 800,
      "xt": 801,
      "That": 802,
      "Ġlist": 803,
      "gan": 804,
      "Ġquick": 805,
      "ase": 806,
      "Jo": 807,
      "Ġlet": 808,
      "Ġdel": 809,
      "joy": 810,
      "Ġdan": 811,
      "Tim": 812,
      "ĠAnna": 813,
      "olly": 814,
      "maz": 815,
      "thing": 816,
      "Ġamaz": 817,
      "Ġthree": 818,
      "ished": 819,
      "dded": 820,
      "Ġstor": 821,
      "bbit": 822,
      "ious": 823,
      "Ġopened": 824,
      "ser": 825,
      "Ġey": 826,
      "Ġwind": 827,
      "Ġeveryone": 828,
      "Ġide": 829,
      "Ġma": 830,
      "eet": 831,
      "Ġvo": 832,
      "ĠJohn": 833,
      "Suddenly": 834,
      "ange": 835,
      "Ġquickly": 836,
      "ught": 837,
      "Ġwar": 838,
      "Ġdis": 839,
      "Ġde": 840,
      "Ġred": 841,
      "Ġwhile": 842,
      "Ġenjoy": 843,
      "Ġkeep": 844,
      "Ġrabbit": 845,
      "Ġidea": 846,
      "ting": 847,
      "Ġtow": 848,
      "Ġthr": 849,
      "ĠG": 850,
      "Ġgreat": 851,
      "Ġground": 852,
      "isy": 853,
      "Ġlooking": 854,
      "hes": 855,
      "Ġwonder": 856,
      "ummy": 857,
      "ger": 858,
      "Ġtre": 859,
      "Ġshould": 860,
      "Ġwork": 861,
      "age": 862,
      "Ġdoor": 863,
      "emb": 864,
      "ĠBob": 865,
      "Ġun": 866,
      "Ġshiny": 867,
      "Ġrepl": 868,
      "Ġbeen": 869,
      "Ġchild": 870,
      "Ġtur": 871,
      "Ġvoice": 872,
      "Ġwr": 873,
      "Ġnext": 874,
      "Ġbed": 875,
      "Ġever": 876,
      "Ġsn": 877,
      "Ġmor": 878,
      "Ġbright": 879,
      "Ġrememb": 880,
      "ted": 881,
      "Ġpicked": 882,
      "ff": 883,
      "ĠN": 884,
      "ĠJane": 885,
      "bye": 886,
      "Ġface": 887,
      "Ġeyes": 888,
      "hy": 889,
      "ner": 890,
      "ĠDad": 891,
      "Ġreal": 892,
      "Ġnodded": 893,
      "ak": 894,
      "Ġforest": 895,
      "Ġafter": 896,
      "Ġcuri": 897,
      "uch": 898,
      "Ġnear": 899,
      "Ġwalk": 900,
      "Ġreplied": 901,
      "Ġrock": 902,
      "Ġgoodbye": 903,
      "Ġclean": 904,
      "Ġnoise": 905,
      "aisy": 906,
      "Ġdra": 907,
      "Ġbegan": 908,
      "Ġcloser": 909,
      "able": 910,
      "Ġcry": 911,
      "Ġgive": 912,
      "Ġpretty": 913,
      "Ġsqu": 914,
      "Ġshare": 915,
      "Ġhands": 916,
      "Ġcurious": 917,
      "Ġgre": 918,
      "bbed": 919,
      "Ġhurt": 920,
      "Ġper": 921,
      "Ġfood": 922,
      "Ġpain": 923,
      "ock": 924,
      "lie": 925,
      "Ġpic": 926,
      "Ġblue": 927,
      "ĠAs": 928,
      "irst": 929,
      "Ġbad": 930,
      "Ġwait": 931,
      "Ġapp": 932,
      "Ġsound": 933,
      "Ġdif": 934,
      "Ġwatched": 935,
      "Ġstrong": 936,
      "Ġtruck": 937,
      "day": 938,
      "Ġbook": 939,
      "Ġfish": 940,
      "Ġbeing": 941,
      "Ġright": 942,
      "Ġcolor": 943,
      "Ġworld": 944,
      "ng": 945,
      "ired": 946,
      "be": 947,
      "Ġbit": 948,
      "ĠMia": 949,
      "John": 950,
      "les": 951,
      "ĠJoe": 952,
      "Ġwatch": 953,
      "Ġmag": 954,
      "imb": 955,
      "Ġdoll": 956,
      "Ġbecame": 957,
      "Ġshout": 958,
      "ĠEveryone": 959,
      "Ġclimb": 960,
      "Ġ-": 961,
      "Ġleave": 962,
      "Ġboat": 963,
      "Ġthrough": 964,
      "llow": 965,
      "Ġyell": 966,
      "ull": 967,
      "ster": 968,
      "ĠMommy": 969,
      "Ġsure": 970,
      "Ġangry": 971,
      "No": 972,
      "kay": 973,
      "Ġbutter": 974,
      "Ġstore": 975,
      "oon": 976,
      "Ġhere": 977,
      "Ġmouse": 978,
      "Ġnight": 979,
      "Ġyears": 980,
      "Ġhopped": 981,
      "Ġac": 982,
      "Ġwhere": 983,
      "Ġhead": 984,
      "ĠDaisy": 985,
      "Ġshowed": 986,
      "ĠR": 987,
      "ream": 988,
      "Ġcont": 989,
      "so": 990,
      "ppy": 991,
      "Ġrain": 992,
      "Ġseen": 993,
      "ached": 994,
      "Ġready": 995,
      "Ġfollow": 996,
      "Ġflowers": 997,
      "Ġtal": 998,
      "Ġfill": 999,
      "Ġdiffe": 1000,
      "Ġwhy": 1001,
      "Ġwarm": 1002,
      "Ġgrabbed": 1003,
      "ture": 1004,
      "Ġfirst": 1005,
      "Ġimport": 1006,
      "Ġwaved": 1007,
      "Thank": 1008,
      "Ġalso": 1009,
      "ol": 1010,
      "Ġmagic": 1011,
      "Ġhigh": 1012,
      "ĠSue": 1013,
      "Ġname": 1014,
      "Ġjumped": 1015,
      "ac": 1016,
      "leep": 1017,
      "Ġuse": 1018,
      "Ġhappened": 1019,
      "zy": 1020,
      "ĠSp": 1021,
      "fully": 1022,
      "Ġdress": 1023,
      "Ġdifferent": 1024,
      "Ġimportant": 1025,
      "Ġreally": 1026,
      "Ġlisten": 1027,
      "Ġus": 1028,
      "ized": 1029,
      "Ġflower": 1030,
      "Ġtired": 1031,
      "ount": 1032,
      "Ġste": 1033,
      "Ġhaving": 1034,
      "Ġparent": 1035,
      "Ġbro": 1036,
      "Ġsweet": 1037,
      "Ben": 1038,
      "Ġwood": 1039,
      "Ġgame": 1040,
      "Ġgrass": 1041,
      "After": 1042,
      "She": 1043,
      "itc": 1044,
      "Ġpicture": 1045,
      "Ġrunning": 1046,
      "Jack": 1047,
      "Ġba": 1048,
      "Ġsurprise": 1049,
      "cket": 1050,
      "Ġperf": 1051,
      "mer": 1052,
      "Ġreached": 1053,
      "Ġdone": 1054,
      "Ġbutterf": 1055,
      "Her": 1056,
      "Ġbug": 1057,
      "Ġlady": 1058,
      "Ġcr": 1059,
      "unny": 1060,
      "Ġshouted": 1061,
      "Ġpat": 1062,
      "Ġhimself": 1063,
      "Ġparents": 1064,
      "\".": 1065,
      "ren": 1066,
      "ather": 1067,
      "lease": 1068,
      "Ġthing": 1069,
      "Ġopen": 1070,
      "Ġthink": 1071,
      "Ġru": 1072,
      "Mommy": 1073,
      "Ġdelic": 1074,
      "where": 1075,
      "ĠSarah": 1076,
      "Ġz": 1077,
      "Ġfro": 1078,
      "Ġtast": 1079,
      "ient": 1080,
      "Ġtell": 1081,
      "Ġhop": 1082,
      "Ġrest": 1083,
      "Ġkid": 1084,
      "Ġenjoyed": 1085,
      "Ġbeh": 1086,
      "Ġstory": 1087,
      "Ġcarefully": 1088,
      "Ġglad": 1089,
      "Ġfilled": 1090,
      "Ġset": 1091,
      "Ġhelped": 1092,
      "Ġsand": 1093,
      "Ġfire": 1094,
      "Ġonly": 1095,
      "Ġwonderful": 1096,
      "Ġchildren": 1097,
      "uff": 1098,
      "imes": 1099,
      "Ġbirds": 1100,
      "more": 1101,
      "ĠAfter": 1102,
      "Ġanymore": 1103,
      "Ġcla": 1104,
      "lled": 1105,
      "Ġmorning": 1106,
      "Ġgreen": 1107,
      "Ġslow": 1108,
      "th": 1109,
      "ued": 1110,
      "Ġtra": 1111,
      "Ġcreat": 1112,
      "Ġhappily": 1113,
      "est": 1114,
      "Ġdark": 1115,
      "Ġstick": 1116,
      "Ġworked": 1117,
      "Can": 1118,
      "per": 1119,
      "ation": 1120,
      "ama": 1121,
      "Ġpie": 1122,
      "ssed": 1123,
      "Ġcoming": 1124,
      "ĠSpot": 1125,
      "Ġtop": 1126,
      "Ġfull": 1127,
      "Ġcatch": 1128,
      "Ġlight": 1129,
      "iss": 1130,
      "Ġsmell": 1131,
      "Ġarri": 1132,
      "ul": 1133,
      "Ġkitc": 1134,
      "ĠMolly": 1135,
      "Ġkitchen": 1136,
      "ĠIn": 1137,
      "Ġask": 1138,
      "Ġworry": 1139,
      "Ġfav": 1140,
      "ĠEm": 1141,
      "rel": 1142,
      "Ġmon": 1143,
      "Ġbrother": 1144,
      "Ġstrange": 1145,
      "Look": 1146,
      "aught": 1147,
      "Ġtall": 1148,
      "Ġbutterfly": 1149,
      "Ġfrog": 1150,
      "Ġam": 1151,
      "Ġdin": 1152,
      "Ġherself": 1153,
      "Ġspot": 1154,
      "Ġunderst": 1155,
      "ken": 1156,
      "aybe": 1157,
      "Ġforg": 1158,
      "Ġable": 1159,
      "ndma": 1160,
      "ĠSally": 1161,
      "Ġsurprised": 1162,
      "Ġarrived": 1163,
      "Ġcra": 1164,
      "Ġdri": 1165,
      "Ġflo": 1166,
      "Sara": 1167,
      "ĠLet": 1168,
      "Ġamazing": 1169,
      "ards": 1170,
      "Ġate": 1171,
      "Ġmove": 1172,
      "inally": 1173,
      "reed": 1174,
      "oring": 1175,
      "Ġbunny": 1176,
      "Ġdr": 1177,
      "Ġsoft": 1178,
      "Ġsat": 1179,
      "Ġmean": 1180,
      "Ġpond": 1181,
      "Ġenough": 1182,
      "sy": 1183,
      "ined": 1184,
      "Ġokay": 1185,
      "Ġyummy": 1186,
      "Don": 1187,
      "sp": 1188,
      "Ġused": 1189,
      "Ġfinished": 1190,
      "Ġless": 1191,
      "Ġdream": 1192,
      "Ġmaking": 1193,
      "Ġkids": 1194,
      "We": 1195,
      "iver": 1196,
      "Ġmother": 1197,
      "aring": 1198,
      "room": 1199,
      "Ġremembered": 1200,
      "Ġhid": 1201,
      "ĠTh": 1202,
      "ĠTo": 1203,
      "Ġfell": 1204,
      "Ġprin": 1205,
      "Ġlearn": 1206,
      "Timmy": 1207,
      "Ġtrees": 1208,
      "Ġcontin": 1209,
      "Ġhas": 1210,
      "Ġdelicious": 1211,
      "ars": 1212,
      "Ġfew": 1213,
      "Ġperfect": 1214,
      "Ġpiece": 1215,
      "Ġsing": 1216,
      "Ġpre": 1217,
      "ated": 1218,
      "ĠThat": 1219,
      "Ġbehind": 1220,
      "ber": 1221,
      "Ġsleep": 1222,
      "ater": 1223,
      "Ġprom": 1224,
      "ign": 1225,
      "Ġstop": 1226,
      "Ġswim": 1227,
      "Ġyellow": 1228,
      "'re": 1229,
      "As": 1230,
      "ila": 1231,
      "Ġgetting": 1232,
      "Ġdro": 1233,
      "Ġtrying": 1234,
      "At": 1235,
      "His": 1236,
      "Ġve": 1237,
      "immy": 1238,
      "Ġcook": 1239,
      "Ġlion": 1240,
      "Ġanything": 1241,
      "Ġair": 1242,
      "Ġgone": 1243,
      "Ġfunny": 1244,
      "asure": 1245,
      "Ġown": 1246,
      "Ġrealized": 1247,
      "Ġwoods": 1248,
      "Ġfox": 1249,
      "Ġhair": 1250,
      "Ġcontinued": 1251,
      "red": 1252,
      "sc": 1253,
      "Ġjoy": 1254,
      "Ġslide": 1255,
      "Ġfriendly": 1256,
      "ross": 1257,
      "Ġfair": 1258,
      "ced": 1259,
      "Ġheld": 1260,
      "Then": 1261,
      "Ġhole": 1262,
      "Ġpuppy": 1263,
      "Ġfinally": 1264,
      "Ġdraw": 1265,
      "Ġleft": 1266,
      "Ġdeep": 1267,
      "gon": 1268,
      "Ġtri": 1269,
      "Ġtouch": 1270,
      "Ġyes": 1271,
      "Ġwrong": 1272,
      "bo": 1273,
      "ike": 1274,
      "ling": 1275,
      "Ġmess": 1276,
      "Ġpart": 1277,
      "ĠThere": 1278,
      "Ġcold": 1279,
      "Ġgent": 1280,
      "irrel": 1281,
      "Ġneeded": 1282,
      "Ġfollowed": 1283,
      "ually": 1284,
      "ich": 1285,
      "Ġpus": 1286,
      "pping": 1287,
      "icy": 1288,
      "ask": 1289,
      "Ġbow": 1290,
      "Ġcut": 1291,
      "Ġdoing": 1292,
      "Ġfix": 1293,
      "co": 1294,
      "Ġbat": 1295,
      "Ġmoment": 1296,
      "Ġleaves": 1297,
      "'ll": 1298,
      "Ġsec": 1299,
      "ĠJill": 1300,
      "Ġagreed": 1301,
      "Ġlooks": 1302,
      "Ġcomp": 1303,
      "Ġblock": 1304,
      "eter": 1305,
      "Ġpretend": 1306,
      "av": 1307,
      "ĠK": 1308,
      "Ġel": 1309,
      "Ġbrought": 1310,
      "Ġsquirrel": 1311,
      "air": 1312,
      "Ġice": 1313,
      "oney": 1314,
      "Ġbuy": 1315,
      "Ġsear": 1316,
      "ĠGra": 1317,
      "Ġthank": 1318,
      "Ġour": 1319,
      "ield": 1320,
      "Ġwindow": 1321,
      "Ġmagical": 1322,
      "Hell": 1323,
      "Wow": 1324,
      "Ġcool": 1325,
      "Ġbee": 1326,
      "Ġwhite": 1327,
      "ĠNow": 1328,
      "Ġbaby": 1329,
      "Ġfavor": 1330,
      "Hello": 1331,
      "Ġhill": 1332,
      "Ġsho": 1333,
      "Ġvis": 1334,
      "Ġstepped": 1335,
      "Ġtight": 1336,
      "Ġlesson": 1337,
      "Ġfavorite": 1338,
      "med": 1339,
      "Ġcake": 1340,
      "Ġmar": 1341,
      "Ġbuild": 1342,
      "Sam": 1343,
      "ph": 1344,
      "Ġanother": 1345,
      "Ġsomeone": 1346,
      "Ġstayed": 1347,
      "From": 1348,
      "Ġduck": 1349,
      "Ġswing": 1350,
      "ash": 1351,
      "Ġflying": 1352,
      "Ġdinner": 1353,
      "sic": 1354,
      "ze": 1355,
      "Ġwasn": 1356,
      "enny": 1357,
      "Ġbag": 1358,
      "Ġdoes": 1359,
      "Ġmusic": 1360,
      "me": 1361,
      "amp": 1362,
      "Ġeverything": 1363,
      "Ġunderstand": 1364,
      "Ġread": 1365,
      "Ġspark": 1366,
      "Ġelse": 1367,
      "mb": 1368,
      "Ġhun": 1369,
      "Ġspl": 1370,
      "This": 1371,
      "Ġamazed": 1372,
      "Ġlost": 1373,
      "Ġmat": 1374,
      "Ġmet": 1375,
      "cess": 1376,
      "Ġsong": 1377,
      "Ġcand": 1378,
      "ĠTommy": 1379,
      "Ġclose": 1380,
      "ventually": 1381,
      "Ġfarmer": 1382,
      "itten": 1383,
      "ĠCan": 1384,
      "lice": 1385,
      "oom": 1386,
      "set": 1387,
      "Ġbel": 1388,
      "Ġexploring": 1389,
      "Ġtable": 1390,
      "Ġslowly": 1391,
      "Anna": 1392,
      "Ġbeach": 1393,
      "Ġlaugh": 1394,
      "iting": 1395,
      "ire": 1396,
      "Ġbre": 1397,
      "ames": 1398,
      "Ġmost": 1399,
      "Ġballoon": 1400,
      "Ġforgot": 1401,
      "Ġjob": 1402,
      "ctor": 1403,
      "Ġpet": 1404,
      "Ġbigger": 1405,
      "ĠAll": 1406,
      "Ġturn": 1407,
      "Ġpaint": 1408,
      "Ġwished": 1409,
      "ower": 1410,
      "Ġcloud": 1411,
      "row": 1412,
      "Ġlake": 1413,
      "Ġhear": 1414,
      "Ġdir": 1415,
      "Ġbelie": 1416,
      "bby": 1417,
      "ment": 1418,
      "ins": 1419,
      "Ġcount": 1420,
      "Ġmight": 1421,
      "sw": 1422,
      "uffy": 1423,
      "eared": 1424,
      "gle": 1425,
      "Ġfield": 1426,
      "Ġgu": 1427,
      "Ġbroken": 1428,
      "Ġfur": 1429,
      "ance": 1430,
      "Ġansw": 1431,
      "Ġfaster": 1432,
      "br": 1433,
      "Ġsu": 1434,
      "Ġwon": 1435,
      "Ġword": 1436,
      "Ġmust": 1437,
      "Ġpoin": 1438,
      "Ġride": 1439,
      "Ġju": 1440,
      "Ġwaited": 1441,
      "ĠBenny": 1442,
      "Ġacross": 1443,
      "Ġwall": 1444,
      "Ġce": 1445,
      "anc": 1446,
      "Ġarm": 1447,
      "ĠAmy": 1448,
      "Ġcars": 1449,
      "Ġhold": 1450,
      "Ġjoin": 1451,
      "Ġturned": 1452,
      "Ġplease": 1453,
      "iling": 1454,
      "ĠWhat": 1455,
      "ĠBilly": 1456,
      "ast": 1457,
      "Ġbar": 1458,
      "leph": 1459,
      "os": 1460,
      "zz": 1461,
      "Ġside": 1462,
      "ence": 1463,
      "Ġneigh": 1464,
      "Ġblack": 1465,
      "Ġtowards": 1466,
      "Ġneighb": 1467,
      "ming": 1468,
      "Ġsuch": 1469,
      "Ġwhe": 1470,
      "Ġhor": 1471,
      "Ġgi": 1472,
      "key": 1473,
      "Ġshared": 1474,
      "Ġadventures": 1475,
      "Ġblocks": 1476,
      "Oh": 1477,
      "oup": 1478,
      "Ġcried": 1479,
      "Ġpro": 1480,
      "Ġlonger": 1481,
      "Ġlistened": 1482,
      "Ġpromised": 1483,
      "Ġsilly": 1484,
      "Ġcast": 1485,
      "Ġalone": 1486,
      "Ġsecret": 1487,
      "app": 1488,
      "Ġhat": 1489,
      "Ġstu": 1490,
      "ĠLila": 1491,
      "Ġsometimes": 1492,
      "Ġcup": 1493,
      "Ġcheered": 1494,
      "Ġdaddy": 1495,
      "Ġremember": 1496,
      "ĠDaddy": 1497,
      "ĠThis": 1498,
      "Why": 1499,
      "gg": 1500,
      "Ġsuddenly": 1501,
      "Ġpink": 1502,
      "ves": 1503,
      "Ġworried": 1504,
      "Ġclapped": 1505,
      "Ġvisit": 1506,
      "Finally": 1507,
      "Ġhot": 1508,
      "Ġhappen": 1509,
      "Ġorange": 1510,
      "Ġowl": 1511,
      "avy": 1512,
      "ope": 1513,
      "Ġothers": 1514,
      "Ġdisapp": 1515,
      "Ġclimbed": 1516,
      "Ġbelieve": 1517,
      "ee": 1518,
      "Ġscary": 1519,
      "ĠDo": 1520,
      "ney": 1521,
      "ott": 1522,
      "Ġtail": 1523,
      "Ġfloor": 1524,
      "fort": 1525,
      "Ġatt": 1526,
      "Ġseemed": 1527,
      "Ġbooks": 1528,
      "iet": 1529,
      "ipped": 1530,
      "Ġsmo": 1531,
      "Ġrelie": 1532,
      "ract": 1533,
      "Ġlone": 1534,
      "Ġtalk": 1535,
      "Ġhungry": 1536,
      "Ġhide": 1537,
      "Ġriver": 1538,
      "Ġplant": 1539,
      "andy": 1540,
      "Ġcolour": 1541,
      "Ġtreasure": 1542,
      "Ġwet": 1543,
      "Ġcor": 1544,
      "ained": 1545,
      "ased": 1546,
      "Ġdanger": 1547,
      "Ġbreak": 1548,
      "Lucy": 1549,
      "Ġsame": 1550,
      "Ġshap": 1551,
      "Ġje": 1552,
      "Ġalong": 1553,
      "ush": 1554,
      "Ġdragon": 1555,
      "Ġlonely": 1556,
      "der": 1557,
      "ek": 1558,
      "eddy": 1559,
      "Ġyoung": 1560,
      "chool": 1561,
      "ĠFl": 1562,
      "Ġcolors": 1563,
      "Ġhig": 1564,
      "Ġheavy": 1565,
      "less": 1566,
      "orm": 1567,
      "ons": 1568,
      "fused": 1569,
      "Ġhelping": 1570,
      "Ġgrow": 1571,
      "Ġmoral": 1572,
      "itty": 1573,
      "Ġsees": 1574,
      "Ġpulled": 1575,
      "Hi": 1576,
      "Ġ3": 1577,
      "Ġpocket": 1578,
      "Ġnearby": 1579,
      "Ġfight": 1580,
      "Ġstone": 1581,
      "Ġclot": 1582,
      "Ġpictures": 1583,
      "weet": 1584,
      "Ġob": 1585,
      "ries": 1586,
      "Ġshop": 1587,
      "ĠMary": 1588,
      "Ġcastle": 1589,
      "Ġrelieved": 1590,
      "Ġclothes": 1591,
      "Ġtreat": 1592,
      "Ġschool": 1593,
      "Ġbott": 1594,
      "Ġsail": 1595,
      "Ġliving": 1596,
      "Ġteac": 1597,
      "And": 1598,
      "elc": 1599,
      "ely": 1600,
      "umb": 1601,
      "Ġcho": 1602,
      "Ġquiet": 1603,
      "Ġcolorful": 1604,
      "Ġgentle": 1605,
      "ix": 1606,
      "Ġtiny": 1607,
      "Ġeleph": 1608,
      "ucky": 1609,
      "Ġpaper": 1610,
      "Ġelephant": 1611,
      "thy": 1612,
      "Ġmoney": 1613,
      "Ġnap": 1614,
      "Ġdoctor": 1615,
      "Ġjour": 1616,
      "Ġbucket": 1617,
      "ions": 1618,
      "Ġtown": 1619,
      "Ġpieces": 1620,
      "Ġpers": 1621,
      "Ġeverywhere": 1622,
      "ĠEmma": 1623,
      "Ġhigher": 1624,
      "Ġsit": 1625,
      "Ġpig": 1626,
      "Ġstre": 1627,
      "Ġwithout": 1628,
      "Ġcave": 1629,
      "Ġclosed": 1630,
      "Ġbike": 1631,
      "ister": 1632,
      "ĠJimmy": 1633,
      "Ġcaught": 1634,
      "Ġsnow": 1635,
      "Ġcookies": 1636,
      "lf": 1637,
      "rew": 1638,
      "Ġstand": 1639,
      "Ġland": 1640,
      "Ġtrain": 1641,
      "Ġmonster": 1642,
      "Bob": 1643,
      "never": 1644,
      "ored": 1645,
      "Ġrace": 1646,
      "Ġsea": 1647,
      "Ġfall": 1648,
      "Ġdes": 1649,
      "Ġrel": 1650,
      "Ġlikes": 1651,
      "Ġeating": 1652,
      "Ġfree": 1653,
      "Ġpurp": 1654,
      "Ġexciting": 1655,
      "Ġbus": 1656,
      "Ġblank": 1657,
      "Ġmoved": 1658,
      "Ġdrove": 1659,
      "Ġbath": 1660,
      "Max": 1661,
      "uit": 1662,
      "Ġtoday": 1663,
      "Ġheart": 1664,
      "Ġsnack": 1665,
      "Maybe": 1666,
      "ises": 1667,
      "Ġplan": 1668,
      "Ġwear": 1669,
      "Ġreach": 1670,
      "Ġkite": 1671,
      "ĠSoon": 1672,
      "ateful": 1673,
      "Ġfairy": 1674,
      "Ġwords": 1675,
      "Ġteacher": 1676,
      "Ġpurple": 1677,
      "Molly": 1678,
      "oun": 1679,
      "Ġpack": 1680,
      "ĠMama": 1681,
      "Ġgrandma": 1682,
      "Ġblanket": 1683,
      "Ġsister": 1684,
      "Ġwelc": 1685,
      "Ġhar": 1686,
      "Ġcream": 1687,
      "Ġmin": 1688,
      "Ġnaught": 1689,
      "Ġgrateful": 1690,
      "Ġsmiles": 1691,
      "Do": 1692,
      "pe": 1693,
      "yard": 1694,
      "Ġmakes": 1695,
      "ÅĵI": 1696,
      "Ġtaking": 1697,
      "aughter": 1698,
      "ward": 1699,
      "Ġheal": 1700,
      "lebr": 1701,
      "Ġthough": 1702,
      "ĠMr": 1703,
      "Ġdisco": 1704,
      "Ġparty": 1705,
      "Ġcandy": 1706,
      "Ġcelebr": 1707,
      "Ġdangerous": 1708,
      "bble": 1709,
      "ining": 1710,
      "vered": 1711,
      "Ġbackyard": 1712,
      "Ġwoke": 1713,
      "unch": 1714,
      "Ġret": 1715,
      "Ġwise": 1716,
      "Ġmix": 1717,
      "Ġpower": 1718,
      "Ġfruit": 1719,
      "ĠInside": 1720,
      "Ġjourney": 1721,
      "Ġnaughty": 1722,
      "Ġcour": 1723,
      "ete": 1724,
      "Ġcoll": 1725,
      "Ġlaughing": 1726,
      "Ġretur": 1727,
      "ail": 1728,
      "pa": 1729,
      "round": 1730,
      "Ġbite": 1731,
      "Ġbask": 1732,
      "Ġstuck": 1733,
      "Ġupset": 1734,
      "Ġlife": 1735,
      "Ġdirty": 1736,
      "Ġbasket": 1737,
      "Ġgather": 1738,
      "Ġdance": 1739,
      "Ġboun": 1740,
      "Ġpen": 1741,
      "pper": 1742,
      "Ġsmart": 1743,
      "Ġwouldn": 1744,
      "ible": 1745,
      "Ġdist": 1746,
      "igg": 1747,
      "adow": 1748,
      "Ġnothing": 1749,
      "Ġmyster": 1750,
      "Ġdelight": 1751,
      "Ġcrying": 1752,
      "cing": 1753,
      "ho": 1754,
      "Ġdays": 1755,
      "Ġsmiling": 1756,
      "Ġapple": 1757,
      "Ġjuice": 1758,
      "Ġcourse": 1759,
      "de": 1760,
      "ier": 1761,
      "Ġcou": 1762,
      "Ġpract": 1763,
      "irt": 1764,
      "Ġswam": 1765,
      "Ġcreature": 1766,
      "Ġshoes": 1767,
      "uched": 1768,
      "Ġtouched": 1769,
      "itch": 1770,
      "Ġinst": 1771,
      "Ġeventually": 1772,
      "Ġlea": 1773,
      "epend": 1774,
      "Ġvill": 1775,
      "Ġpres": 1776,
      "Ġdaughter": 1777,
      "Ġinc": 1778,
      "Ġwell": 1779,
      "Ġspr": 1780,
      "Ġsunny": 1781,
      "Ġadm": 1782,
      "ountain": 1783,
      "la": 1784,
      "Ġpot": 1785,
      "ĠWith": 1786,
      "Ġbush": 1787,
      "Ġcray": 1788,
      "OK": 1789,
      "Ġthin": 1790,
      "itting": 1791,
      "ĠTweet": 1792,
      "Ġimag": 1793,
      "Ġminut": 1794,
      "Every": 1795,
      "Ġsign": 1796,
      "Ġwings": 1797,
      "Ġont": 1798,
      "Ġbusy": 1799,
      "ours": 1800,
      "Ġsearch": 1801,
      "Ġonto": 1802,
      "Ġgif": 1803,
      "ness": 1804,
      "Ġsol": 1805,
      "Ġplane": 1806,
      "Ġscream": 1807,
      "Ġbring": 1808,
      "Ġspotted": 1809,
      "ĠJake": 1810,
      "Ġhuge": 1811,
      "Ġpeace": 1812,
      "Ġpath": 1813,
      "Ġbelong": 1814,
      "rot": 1815,
      "ndpa": 1816,
      "Ġmark": 1817,
      "Ġgames": 1818,
      "Ġwhist": 1819,
      "Ġtrou": 1820,
      "Ġtasty": 1821,
      "Ġsinging": 1822,
      "Ġpushed": 1823,
      "ĠFluffy": 1824,
      "orrow": 1825,
      "Ġwants": 1826,
      "Ġspent": 1827,
      "Ġexplained": 1828,
      "Ġpull": 1829,
      "Ġdolls": 1830,
      "Ġsmooth": 1831,
      "Ġpresent": 1832,
      "cle": 1833,
      "Ġcir": 1834,
      "Ġsack": 1835,
      "Ġear": 1836,
      "Ġshining": 1837,
      "Ġpast": 1838,
      "Ġwatching": 1839,
      "Ġprincess": 1840,
      "Ġswimming": 1841,
      "ped": 1842,
      "rest": 1843,
      "Ġstars": 1844,
      "Ġkitten": 1845,
      "Ġmeet": 1846,
      "Ġsunsh": 1847,
      "Ġforever": 1848,
      "Tommy": 1849,
      "Ġcraw": 1850,
      "Ġsunshine": 1851,
      "erest": 1852,
      "fish": 1853,
      "Ġsuc": 1854,
      "Ġsitting": 1855,
      "Ġbreat": 1856,
      "Ġfig": 1857,
      "Ġsang": 1858,
      "outh": 1859,
      "Ġpol": 1860,
      "Ġinterest": 1861,
      "Ġstories": 1862,
      "Ġbroke": 1863,
      "Okay": 1864,
      "ead": 1865,
      "ond": 1866,
      "Ġfit": 1867,
      "ont": 1868,
      "Ġfront": 1869,
      "Ġrocks": 1870,
      "Ġbowl": 1871,
      "Ġclouds": 1872,
      "Ġneighbor": 1873,
      "Ġwelcome": 1874,
      "Sure": 1875,
      "Ġdry": 1876,
      "cked": 1877,
      "ĠJenny": 1878,
      "Ġcozy": 1879,
      "ĠPete": 1880,
      "Ġdanced": 1881,
      "Ġshapes": 1882,
      "Ġstreet": 1883,
      "bow": 1884,
      "Ġwin": 1885,
      "ang": 1886,
      "Ġyard": 1887,
      "Ġlift": 1888,
      "Ġwhich": 1889,
      "Ġrolled": 1890,
      "Ġowner": 1891,
      "Ġappeared": 1892,
      "Ġtasted": 1893,
      "Ġmonkey": 1894,
      "'d": 1895,
      "ass": 1896,
      "Ġ'": 1897,
      "Ġlate": 1898,
      "Ġlunch": 1899,
      "Ġbrown": 1900,
      "ize": 1901,
      "Ġplaces": 1902,
      "ocked": 1903,
      "Ġrainbow": 1904,
      "Ġhorse": 1905,
      "Mum": 1906,
      "og": 1907,
      "Ġsort": 1908,
      "alm": 1909,
      "Ġwhole": 1910,
      "Ġwondered": 1911,
      "Ġacc": 1912,
      "Ġdriver": 1913,
      "Ġarms": 1914,
      "Just": 1915,
      "Ġsur": 1916,
      "Ġmouth": 1917,
      "Ġeas": 1918,
      "Ġegg": 1919,
      "Ġcarry": 1920,
      "ten": 1921,
      "Ġlar": 1922,
      "Ġround": 1923,
      "Ġforget": 1924,
      "Ġshook": 1925,
      "Ġnoises": 1926,
      "Ġkey": 1927,
      "Ġasks": 1928,
      "ĠEmily": 1929,
      "Ġdrink": 1930,
      "Ġdropped": 1931,
      "Ġcorner": 1932,
      "Ġvillage": 1933,
      "Ġact": 1934,
      "Ġsug": 1935,
      "Ġwish": 1936,
      "read": 1937,
      "Ġmine": 1938,
      "Ġresp": 1939,
      "Ġquest": 1940,
      "izz": 1941,
      "Ġsearched": 1942,
      "cer": 1943,
      "Ġfence": 1944,
      "ens": 1945,
      "Ġeag": 1946,
      "Ġspicy": 1947,
      "Ġcarrot": 1948,
      "Ġfoot": 1949,
      "Ġchest": 1950,
      "thday": 1951,
      "fortable": 1952,
      "Ġbought": 1953,
      "ider": 1954,
      "Ġthrew": 1955,
      "Ġnet": 1956,
      "Ġspin": 1957,
      "Ġlovely": 1958,
      "Ġconfused": 1959,
      "Ġcollect": 1960,
      "Ġinteresting": 1961,
      "Ġlarge": 1962,
      "Jane": 1963,
      "ground": 1964,
      "ove": 1965,
      "llo": 1966,
      "Ġlem": 1967,
      "blem": 1968,
      "gest": 1969,
      "Ġmummy": 1970,
      "aur": 1971,
      "man": 1972,
      "Ġent": 1973,
      "Ġwild": 1974,
      "let": 1975,
      "Ġemb": 1976,
      "Ġshy": 1977,
      "Ġjun": 1978,
      "Ġspoon": 1979,
      "Ġchair": 1980,
      "Ġpass": 1981,
      "Ġjoke": 1982,
      "ĠCh": 1983,
      "Ġfarm": 1984,
      "Joe": 1985,
      "Ġmail": 1986,
      "ĠTogether": 1987,
      "board": 1988,
      "ĠGrandma": 1989,
      "Ġproblem": 1990,
      "gged": 1991,
      "obby": 1992,
      "Ġben": 1993,
      "ity": 1994,
      "Ġoce": 1995,
      "arra": 1996,
      "Ġleg": 1997,
      "oph": 1998,
      "ĠFinally": 1999,
      "Hey": 2000,
      "Ġhoped": 2001,
      "Ġembarra": 2002,
      "Ġocean": 2003,
      "Mama": 2004,
      "cor": 2005,
      "dle": 2006,
      "Ġign": 2007,
      "Ġap": 2008,
      "Ġmiss": 2009,
      "Ġgroup": 2010,
      "Ġbugs": 2011,
      "scap": 2012,
      "Ġanswer": 2013,
      "ancy": 2014,
      "Ġbottle": 2015,
      "den": 2016,
      "Ġaf": 2017,
      "Ġblew": 2018,
      "idge": 2019,
      "anut": 2020,
      "anch": 2021,
      "Ġkick": 2022,
      "Ġbutt": 2023,
      "Ġmeadow": 2024,
      "Ġbranch": 2025,
      "Ġtwins": 2026,
      "Ġpatient": 2027,
      "Ġcute": 2028,
      "Jimmy": 2029,
      "Ġteddy": 2030,
      "Ġletter": 2031,
      "Ġpile": 2032,
      "Ġpudd": 2033,
      "Ġbone": 2034,
      "Ġspo": 2035,
      "Ġbirthday": 2036,
      "Ġbedroom": 2037,
      "Ġtalking": 2038,
      "ult": 2039,
      "Ġpointed": 2040,
      "Of": 2041,
      "erly": 2042,
      "lex": 2043,
      "Ġwearing": 2044,
      "Ġshr": 2045,
      "Ġcarried": 2046,
      "usie": 2047,
      "Ġfold": 2048,
      "Ġhidden": 2049,
      "Ġsplas": 2050,
      "een": 2051,
      "gly": 2052,
      "ose": 2053,
      "Ġbur": 2054,
      "Ġhours": 2055,
      "ident": 2056,
      "Ġugly": 2057,
      "Ġforward": 2058,
      "ugg": 2059,
      "Ġexcite": 2060,
      "Ġholding": 2061,
      "Ġmysterious": 2062,
      "Ġfigure": 2063,
      "Now": 2064,
      "old": 2065,
      "ps": 2066,
      "Ġtun": 2067,
      "Ġmis": 2068,
      "Ġstood": 2069,
      "ĠMaybe": 2070,
      "Ġspe": 2071,
      "Ġroll": 2072,
      "ĠEverywhere": 2073,
      "Ġwrite": 2074,
      "eterm": 2075,
      "Ġhealthy": 2076,
      "Ġinstead": 2077,
      "Ġjungle": 2078,
      "Ġexcitement": 2079,
      "Come": 2080,
      "In": 2081,
      "nic": 2082,
      "Ġdeterm": 2083,
      "Ġpill": 2084,
      "Ġpool": 2085,
      "rill": 2086,
      "Ġhelpful": 2087,
      "Ġfeet": 2088,
      "Ġpicnic": 2089,
      "Ġzoom": 2090,
      "Ġdrive": 2091,
      "Ġperson": 2092,
      "Ġembarrassed": 2093,
      "Ġlucky": 2094,
      "Ġmot": 2095,
      "ĠSt": 2096,
      "amed": 2097,
      "Ġplayground": 2098,
      "Ġasleep": 2099,
      "ĠMum": 2100,
      "ĠJen": 2101,
      "Ġjar": 2102,
      "Ġbubble": 2103,
      "Ġorgan": 2104,
      "Ġpuzz": 2105,
      "Ġclever": 2106,
      "Ġremind": 2107,
      "Ġthinks": 2108,
      "Ġreturned": 2109,
      "Ġgift": 2110,
      "Good": 2111,
      "Ġant": 2112,
      "Ġlay": 2113,
      "Ġwash": 2114,
      "Ġph": 2115,
      "Ġrope": 2116,
      "Ġkiss": 2117,
      "Ġang": 2118,
      "raid": 2119,
      "Ġspider": 2120,
      "Ġteach": 2121,
      "Ġimpre": 2122,
      "Ġmatter": 2123,
      "Ġstanding": 2124,
      "Ġlemon": 2125,
      "My": 2126,
      "Mummy": 2127,
      "ian": 2128,
      "Ġsne": 2129,
      "Ġfancy": 2130,
      "Ġlit": 2131,
      "Ġinv": 2132,
      "owed": 2133,
      "Ġswings": 2134,
      "ĠCome": 2135,
      "Ġsounds": 2136,
      "ĠKitty": 2137,
      "Ġcolourful": 2138,
      "Ġafraid": 2139,
      "col": 2140,
      "Ġhello": 2141,
      "Ġescap": 2142,
      "?\".": 2143,
      "ular": 2144,
      "Ġturns": 2145,
      "Ġgathered": 2146,
      "Ġcow": 2147,
      "Ġdi": 2148,
      "Ġmad": 2149,
      "Ġmind": 2150,
      "Ġsailed": 2151,
      "ighed": 2152,
      "Ġmud": 2153,
      "Ġlast": 2154,
      "ĠFred": 2155,
      "ĠSammy": 2156,
      "Ġgrew": 2157,
      "Ġtalked": 2158,
      "Ġsandw": 2159,
      "Sarah": 2160,
      "Ġbuilding": 2161,
      "Later": 2162,
      "To": 2163,
      "aking": 2164,
      "Ġwave": 2165,
      "Ġlater": 2166,
      "iddle": 2167,
      "Ġstir": 2168,
      "Ġnest": 2169,
      "ĠEven": 2170,
      "Ġlaw": 2171,
      "Ġprot": 2172,
      "Ġthrow": 2173,
      "Ġhope": 2174,
      "Ġsmelled": 2175,
      "Ġwhenever": 2176,
      "Ġangel": 2177,
      "hile": 2178,
      "ual": 2179,
      "Ġwander": 2180,
      "ert": 2181,
      "Ġmist": 2182,
      "Ġpar": 2183,
      "Ġstep": 2184,
      "Ġshirt": 2185,
      "ĠJust": 2186,
      "Ġrob": 2187,
      "Ġseek": 2188,
      "Ġflut": 2189,
      "Ġsparkly": 2190,
      "Ġfurry": 2191,
      "Ġminutes": 2192,
      "Ġbreath": 2193,
      "Ġmotor": 2194,
      "ale": 2195,
      "Ġser": 2196,
      "Ġsour": 2197,
      "Ġple": 2198,
      "Ġgigg": 2199,
      "ilk": 2200,
      "vel": 2201,
      "Ġval": 2202,
      "Ġbecome": 2203,
      "Ġblow": 2204,
      "Ġpeanut": 2205,
      "Ġhopping": 2206,
      "Soon": 2207,
      "Ġgently": 2208,
      "Ġtightly": 2209,
      "Ġaccident": 2210,
      "Ġprotect": 2211,
      "Ġrobot": 2212,
      "Ġtig": 2213,
      "Ġsick": 2214,
      "Ġwra": 2215,
      "Ġber": 2216,
      "Ġfing": 2217,
      "Ġcalm": 2218,
      "Ġmilk": 2219,
      "Ġexp": 2220,
      "Ġexam": 2221,
      "ĠEnd": 2222,
      "ÅĵLet": 2223,
      "Ġanyone": 2224,
      "Ġcheer": 2225,
      "ĠTweety": 2226,
      "Ġpeaceful": 2227,
      "Ġdetermined": 2228,
      "Mia": 2229,
      "sist": 2230,
      "unt": 2231,
      "Ġsel": 2232,
      "Ġmed": 2233,
      "Ġbell": 2234,
      "Ġgoat": 2235,
      "Ġgrab": 2236,
      "Ġstorm": 2237,
      "Ġwaiting": 2238,
      "Ġyelled": 2239,
      "Ġsmelly": 2240,
      "Ġtrip": 2241,
      "hin": 2242,
      "Ġwip": 2243,
      "ird": 2244,
      "Ġnut": 2245,
      "cept": 2246,
      "oose": 2247,
      "Ġweek": 2248,
      "Ġneck": 2249,
      "alous": 2250,
      "urry": 2251,
      "Ġnose": 2252,
      "getable": 2253,
      "Ġmatch": 2254,
      "Ġanswered": 2255,
      "Ġjealous": 2256,
      "ependable": 2257,
      "Ġtrouble": 2258,
      "St": 2259,
      "ball": 2260,
      "ey": 2261,
      "Ġtear": 2262,
      "Ġwide": 2263,
      "Ġcoo": 2264,
      "ating": 2265,
      "Ġstar": 2266,
      "ĠBe": 2267,
      "Ġash": 2268,
      "Ġasking": 2269,
      "Ġtower": 2270,
      "Ġvegetable": 2271,
      "Ġgiant": 2272,
      "Ġdisappeared": 2273,
      "Ġcouch": 2274,
      "Ġsuccess": 2275,
      "Ġpuddle": 2276,
      "Ġhit": 2277,
      "ener": 2278,
      "eth": 2279,
      "Ġseat": 2280,
      "Ġcoin": 2281,
      "Ġmoon": 2282,
      "Ġcomes": 2283,
      "Ġjumping": 2284,
      "Ġfinish": 2285,
      "Ġtreats": 2286,
      "Ġmistake": 2287,
      "Amy": 2288,
      "Where": 2289,
      "ĠOn": 2290,
      "Ġtom": 2291,
      "Ġmountain": 2292,
      "Ġmiddle": 2293,
      "Ġgas": 2294,
      "Ġsaf": 2295,
      "ĠSandy": 2296,
      "ĠTV": 2297,
      "Ġshore": 2298,
      "ĠJim": 2299,
      "umber": 2300,
      "elly": 2301,
      "Ġbull": 2302,
      "Ġfeels": 2303,
      "Ġselfish": 2304,
      "Lila": 2305,
      "light": 2306,
      "pill": 2307,
      "vous": 2308,
      "Ġband": 2309,
      "Ġwagon": 2310,
      "erpill": 2311,
      "ĠBobby": 2312,
      "ĠMummy": 2313,
      "Ġnod": 2314,
      "ife": 2315,
      "Ġchick": 2316,
      "Ġcaterpill": 2317,
      "Ġruns": 2318,
      "Ġdancing": 2319,
      "Ġhiding": 2320,
      "ĠThank": 2321,
      "Ġsplash": 2322,
      "ĠMrs": 2323,
      "Ġscreamed": 2324,
      "Ġwhistle": 2325,
      "Ġrespect": 2326,
      "Gra": 2327,
      "Sally": 2328,
      "Ġwom": 2329,
      "Ġthese": 2330,
      "inted": 2331,
      "Ġlad": 2332,
      "Ġpizz": 2333,
      "Ġgener": 2334,
      "anny": 2335,
      "ese": 2336,
      "ĠMar": 2337,
      "Ġpaw": 2338,
      "Ġtrue": 2339,
      "Ġknowing": 2340,
      "ĠJohnny": 2341,
      "Ġrealised": 2342,
      "Ġrocket": 2343,
      "Ġclass": 2344,
      "Ġcreative": 2345,
      "Ġpromise": 2346,
      "Ġthankful": 2347,
      "Ġcaterpillar": 2348,
      "Ġwoman": 2349,
      "Please": 2350,
      "bin": 2351,
      "eb": 2352,
      "rated": 2353,
      "Ġsil": 2354,
      "Ġsoup": 2355,
      "Ġcard": 2356,
      "isa": 2357,
      "irp": 2358,
      "ured": 2359,
      "ĠAn": 2360,
      "Ġchased": 2361,
      "Ġhugs": 2362,
      "Ġpolice": 2363,
      "izzy": 2364,
      "ctus": 2365,
      "Ġsleepy": 2366,
      "Ġcrayons": 2367,
      "Ġladder": 2368,
      "Ġgenerous": 2369,
      "Em": 2370,
      "com": 2371,
      "ying": 2372,
      "Ġtid": 2373,
      "Ġtag": 2374,
      "Ġdependable": 2375,
      "Ġgar": 2376,
      "There": 2377,
      "Ġsave": 2378,
      "ors": 2379,
      "Ġner": 2380,
      "Ġweak": 2381,
      "Ġrecor": 2382,
      "Ġcactus": 2383,
      "Ġbrush": 2384,
      "Ġtaken": 2385,
      "Ġskipped": 2386,
      "usual": 2387,
      "ĠPeter": 2388,
      "Ġtest": 2389,
      "Ġunusual": 2390,
      "Ġapples": 2391,
      "Ġpush": 2392,
      "Ġdisappo": 2393,
      "Ġcirc": 2394,
      "cient": 2395,
      "land": 2396,
      "uce": 2397,
      "wel": 2398,
      "Ġter": 2399,
      "Ġtrave": 2400,
      "orn": 2401,
      "Ġem": 2402,
      "Ġking": 2403,
      "Ġancient": 2404,
      "Ġlead": 2405,
      "Ġfeather": 2406,
      "Ġmanag": 2407,
      "Ġmeasure": 2408,
      "ÅĵIt": 2409,
      "Ġtrust": 2410,
      "umpy": 2411,
      "apa": 2412,
      "ache": 2413,
      "Ġsongs": 2414,
      "Ġdesk": 2415,
      "Ġpowerful": 2416,
      "Ġnervous": 2417,
      "Dad": 2418,
      "ipp": 2419,
      "iant": 2420,
      "Ġbal": 2421,
      "Ġbrill": 2422,
      "ĠSome": 2423,
      "Ġshell": 2424,
      "Ġstret": 2425,
      "oof": 2426,
      "keep": 2427,
      "als": 2428,
      "umsy": 2429,
      "Ġcovered": 2430,
      "Ġknee": 2431,
      "Ġcheese": 2432,
      "Ġtaste": 2433,
      "Ġjewel": 2434,
      "Ġtiger": 2435,
      "Ġvegetables": 2436,
      "Ġpizza": 2437,
      "Ġterri": 2438,
      "Ġbrilliant": 2439,
      "keeper": 2440,
      "Ġadd": 2441,
      "ination": 2442,
      "Ġbra": 2443,
      "Ġhel": 2444,
      "Ġmach": 2445,
      "ĠSomet": 2446,
      "ĠSusie": 2447,
      "ork": 2448,
      "Ġoften": 2449,
      "urse": 2450,
      "Ġclay": 2451,
      "ustrated": 2452,
      "ÅĵThat": 2453,
      "Ġplants": 2454,
      "umbled": 2455,
      "Ġrelax": 2456,
      "Ġphone": 2457,
      "Ġempt": 2458,
      "gy": 2459,
      "mo": 2460,
      "up": 2461,
      "Ġfather": 2462,
      "Ġgem": 2463,
      "Ġreg": 2464,
      "ĠAlice": 2465,
      "Ġones": 2466,
      "Ġtwirl": 2467,
      "Ġchew": 2468,
      "ĠAndy": 2469,
      "Ġstronger": 2470,
      "Ġcrack": 2471,
      "Ġunderstood": 2472,
      "Ġpretended": 2473,
      "Ġstudy": 2474,
      "Ġsnacks": 2475,
      "Ġmarket": 2476,
      "Ġbench": 2477,
      "ÅĵLetÃ¢": 2478,
      "Ġgarage": 2479,
      "Ġdisappointed": 2480,
      "Ġempty": 2481,
      "Alice": 2482,
      "ub": 2483,
      "Ġed": 2484,
      "edient": 2485,
      "Ġhoney": 2486,
      "Ġsaved": 2487,
      "imp": 2488,
      "Ġsock": 2489,
      "Ġonce": 2490,
      "ĠBr": 2491,
      "Ġext": 2492,
      "Ġisland": 2493,
      "ella": 2494,
      "Ġvi": 2495,
      "Ġmod": 2496,
      "ushed": 2497,
      "Ġfrustrated": 2498,
      "Ġdead": 2499,
      "Ġbrightly": 2500,
      "ola": 2501,
      "Ġfixed": 2502,
      "Ġsupp": 2503,
      "Ġescape": 2504,
      "Well": 2505,
      "nie": 2506,
      "year": 2507,
      "Ġsight": 2508,
      "Ġwis": 2509,
      "Ġoven": 2510,
      "ana": 2511,
      "Ġstuff": 2512,
      "Ġring": 2513,
      "Ġshake": 2514,
      "Ġspread": 2515,
      "Ġarrow": 2516,
      "icine": 2517,
      "Ġroad": 2518,
      "ÅĵYes": 2519,
      "Ġcalling": 2520,
      "Ġteam": 2521,
      "Ġmessy": 2522,
      "airs": 2523,
      "Ġducks": 2524,
      "ittens": 2525,
      "Ġdirt": 2526,
      "Ġobedient": 2527,
      "Ġdistance": 2528,
      "Ġdelighted": 2529,
      "Ġsolve": 2530,
      "Ġeasy": 2531,
      "Ġgiggled": 2532,
      "Ġmedicine": 2533,
      "Ġtomorrow": 2534,
      "Ġrecord": 2535,
      "Ġmanaged": 2536,
      "most": 2537,
      "Ġtick": 2538,
      "Ġtask": 2539,
      "Ġaw": 2540,
      "Ġcomet": 2541,
      "Ġpin": 2542,
      "Ġpenny": 2543,
      "orge": 2544,
      "ĠLittle": 2545,
      "Ġwhis": 2546,
      "Ġgold": 2547,
      "Ġcabin": 2548,
      "Ġalmost": 2549,
      "Ġmeant": 2550,
      "Ġdecor": 2551,
      "ĠDon": 2552,
      "Ġtakes": 2553,
      "Ġtaught": 2554,
      "Ġpassed": 2555,
      "Ġslid": 2556,
      "iable": 2557,
      "Ġloves": 2558,
      "Ġfrown": 2559,
      "Ġdest": 2560,
      "Ġcontent": 2561,
      "box": 2562,
      "Ġchocol": 2563,
      "Ġreliable": 2564,
      "Ġincred": 2565,
      "Ġpuzzle": 2566,
      "Ġimpressed": 2567,
      "Billy": 2568,
      "Mary": 2569,
      "cy": 2570,
      "work": 2571,
      "henever": 2572,
      "Ġadded": 2573,
      "Ġfil": 2574,
      "Ġok": 2575,
      "ately": 2576,
      "Ġhang": 2577,
      "ĠTheir": 2578,
      "Ġshelf": 2579,
      "Ġstream": 2580,
      "uring": 2581,
      "Ġfear": 2582,
      "Ġknocked": 2583,
      "Ġgrand": 2584,
      "Ġmoving": 2585,
      "Ġord": 2586,
      "Ġturkey": 2587,
      "Ġbald": 2588,
      "Ġwheel": 2589,
      "Ġgiving": 2590,
      "Ġhappening": 2591,
      "Ġleaf": 2592,
      "ophie": 2593,
      "Ġextra": 2594,
      "Be": 2595,
      "ject": 2596,
      "uz": 2597,
      "ĠO": 2598,
      "Ġicy": 2599,
      "Ġtie": 2600,
      "Ġav": 2601,
      "Ġsighed": 2602,
      "ina": 2603,
      "ready": 2604,
      "Ġpop": 2605,
      "Ġrid": 2606,
      "itter": 2607,
      "ention": 2608,
      "unk": 2609,
      "Ġliz": 2610,
      "Ġdolp": 2611,
      "Ġboard": 2612,
      "Ġlock": 2613,
      "Ġspend": 2614,
      "urous": 2615,
      "Ġalready": 2616,
      "Ġscr": 2617,
      "Ġfluffy": 2618,
      "Ġyourself": 2619,
      "Ġpicking": 2620,
      "Ġadventurous": 2621,
      "Ġaccept": 2622,
      "Ġcrown": 2623,
      "Ġfavour": 2624,
      "Ġcookie": 2625,
      "Ġstones": 2626,
      "Ġdiscovered": 2627,
      "Ġcelebrate": 2628,
      "Ġquestions": 2629,
      "Ġsnee": 2630,
      "Ġaccidentally": 2631,
      "Ġline": 2632,
      "arp": 2633,
      "ats": 2634,
      "Ġstra": 2635,
      "Ġyog": 2636,
      "Ġship": 2637,
      "Ġsharp": 2638,
      "Ġlive": 2639,
      "opus": 2640,
      "ĠWhenever": 2641,
      "Ġexcitedly": 2642,
      "Ġraven": 2643,
      "ctopus": 2644,
      "ĠPolly": 2645,
      "Ġclear": 2646,
      "Ġmaze": 2647,
      "Ġguard": 2648,
      "Ġsplashed": 2649,
      "Ġpleased": 2650,
      "Ġtidy": 2651,
      "Ġterrible": 2652,
      "Ġchocolate": 2653,
      "Ġincredible": 2654,
      "Ġfavourite": 2655,
      "Sue": 2656,
      "une": 2657,
      "reen": 2658,
      "Ġcher": 2659,
      "Ġdizzy": 2660,
      "Ġpir": 2661,
      "Ġoctopus": 2662,
      "lla": 2663,
      "imed": 2664,
      "ĠSm": 2665,
      "Ġlog": 2666,
      "ĠAt": 2667,
      "Ġclumsy": 2668,
      "asing": 2669,
      "Ġabove": 2670,
      "Ġpoor": 2671,
      "Ġgray": 2672,
      "ÅĵWhat": 2673,
      "Ġcomfortable": 2674,
      "ĠPapa": 2675,
      "Ġdinos": 2676,
      "body": 2677,
      "ĠGrace": 2678,
      "Ġbarber": 2679,
      "Ġlanded": 2680,
      "Ġcrawled": 2681,
      "Ġpolite": 2682,
      "Ġsorts": 2683,
      "Ġeager": 2684,
      "aby": 2685,
      "eorge": 2686,
      "port": 2687,
      "wards": 2688,
      "Ġind": 2689,
      "Ġwore": 2690,
      "Ġtoug": 2691,
      "Ġhive": 2692,
      "Ġpri": 2693,
      "ature": 2694,
      "anged": 2695,
      "Ġstumbled": 2696,
      "Ġplate": 2697,
      "!\".": 2698,
      "Ġseed": 2699,
      "ĠWhy": 2700,
      "Ġchar": 2701,
      "Ġgrace": 2702,
      "Ġgrumpy": 2703,
      "Ġtape": 2704,
      "Ġskip": 2705,
      "Ġjog": 2706,
      "Ġfridge": 2707,
      "Ġfaces": 2708,
      "Ġwalks": 2709,
      "Ġsticks": 2710,
      "berry": 2711,
      "Ġmarch": 2712,
      "Ġbutton": 2713,
      "Ġsandwich": 2714,
      "Ġviol": 2715,
      "Ġdinosaur": 2716,
      "ever": 2717,
      "pack": 2718,
      "und": 2719,
      "zed": 2720,
      "Ġfis": 2721,
      "Ġmic": 2722,
      "Ġpour": 2723,
      "ory": 2724,
      "ĠHow": 2725,
      "ilt": 2726,
      "Ġnumber": 2727,
      "Ġrich": 2728,
      "ĠLe": 2729,
      "Ġshone": 2730,
      "Ġsharing": 2731,
      "Ġrefused": 2732,
      "Ġload": 2733,
      "Ġjam": 2734,
      "Ġlazy": 2735,
      "ecially": 2736,
      "Ġexplored": 2737,
      "ĠdonÃ¢": 2738,
      "Ġsquare": 2739,
      "Ġsounded": 2740,
      "Ġusing": 2741,
      "specially": 2742,
      "Ġdiscover": 2743,
      "Ġpillow": 2744,
      "Ġlizard": 2745,
      "Ġdolphin": 2746,
      "Ġviolin": 2747,
      "Ġer": 2748,
      "iness": 2749,
      "Ġboring": 2750,
      "Ġwaves": 2751,
      "Ġlying": 2752,
      "Ġeld": 2753,
      "Ġespecially": 2754,
      "ote": 2755,
      "ĠTeddy": 2756,
      "ĠLisa": 2757,
      "ĠBl": 2758,
      "Ġkitty": 2759,
      "Ġjelly": 2760,
      "ĠAlex": 2761,
      "Ġfeed": 2762,
      "aser": 2763,
      "Ġtwist": 2764,
      "Ġcheck": 2765,
      "Ġkinds": 2766,
      "ĠRe": 2767,
      "Ġdelicate": 2768,
      "Ġdrum": 2769,
      "ĠToday": 2770,
      "ĠGrandpa": 2771,
      "Ġmighty": 2772,
      "Ġbarked": 2773,
      "Ġfighting": 2774,
      "Ġpersist": 2775,
      "Ġpacked": 2776,
      "Ġharm": 2777,
      "Ġsearching": 2778,
      "Ġcircles": 2779,
      "Ġedge": 2780,
      "ĠSmith": 2781,
      "How": 2782,
      "live": 2783,
      "lies": 2784,
      "time": 2785,
      "Ġsy": 2786,
      "Ġthose": 2787,
      "Ġroof": 2788,
      "Ġkay": 2789,
      "Ġbody": 2790,
      "Ġspace": 2791,
      "Ġsell": 2792,
      "Ġexcla": 2793,
      "ĠEventually": 2794,
      "Ġskin": 2795,
      "Ġshowing": 2796,
      "ĠCl": 2797,
      "Ġeye": 2798,
      "Ġsquee": 2799,
      "Ġpainting": 2800,
      "Ġpainted": 2801,
      "Ġprint": 2802,
      "Ġwalls": 2803,
      "Ġchose": 2804,
      "Ġfinger": 2805,
      "ĠSometimes": 2806,
      "Ġexclaimed": 2807,
      "Jill": 2808,
      "fic": 2809,
      "ha": 2810,
      "ipper": 2811,
      "Ġhum": 2812,
      "era": 2813,
      "Ġcart": 2814,
      "Ġcush": 2815,
      "enry": 2816,
      "Ġbees": 2817,
      "Ġrough": 2818,
      "Ġcloth": 2819,
      "Ġleash": 2820,
      "onest": 2821,
      "Ġworking": 2822,
      "iff": 2823,
      "Ġsaying": 2824,
      "Ġdogs": 2825,
      "Ġqueen": 2826,
      "Ġstring": 2827,
      "selves": 2828,
      "âĤ¬âĢ": 2829,
      "Ġraced": 2830,
      "Ġglow": 2831,
      "Ġwrote": 2832,
      "Ġperform": 2833,
      "Ġrude": 2834,
      "Ġzoo": 2835,
      "Ġforgive": 2836,
      "Ġtrick": 2837,
      "Ġpointing": 2838,
      "osie": 2839,
      "Ġpractice": 2840,
      "Ġbelonged": 2841,
      "Ġtears": 2842,
      "Ġtough": 2843,
      "Who": 2844,
      "aw": 2845,
      "rank": 2846,
      "uable": 2847,
      "yal": 2848,
      "Ġtimes": 2849,
      "render": 2850,
      "Ġcross": 2851,
      "Ġcamp": 2852,
      "Ġmama": 2853,
      "nel": 2854,
      "anger": 2855,
      "orant": 2856,
      "Ġthick": 2857,
      "Ġears": 2858,
      "Ġrushed": 2859,
      "adi": 2860,
      "rage": 2861,
      "Ġotter": 2862,
      "ipe": 2863,
      "Ġsnake": 2864,
      "ĠNo": 2865,
      "Ġgives": 2866,
      "Ġdiffic": 2867,
      "Ġsett": 2868,
      "Ġdrank": 2869,
      "ĠToby": 2870,
      "Ġneighbour": 2871,
      "Ġleaving": 2872,
      "Ġspray": 2873,
      "Ġsuggest": 2874,
      "ensive": 2875,
      "Ġexpensive": 2876,
      "Ġashamed": 2877,
      "Ġeraser": 2878,
      "Ġpersistent": 2879,
      "head": 2880,
      "Ġwitch": 2881,
      "Ġwake": 2882,
      "Ġhipp": 2883,
      "Ġhonest": 2884,
      "Ġfool": 2885,
      "Ġdish": 2886,
      "Ġdull": 2887,
      "Ġitself": 2888,
      "ilty": 2889,
      "aled": 2890,
      "Ġloyal": 2891,
      "ages": 2892,
      "Ġchain": 2893,
      "Ġpear": 2894,
      "Ġglue": 2895,
      "Ġloudly": 2896,
      "Ġtrucks": 2897,
      "Ġuseful": 2898,
      "Ġruined": 2899,
      "Ġcrab": 2900,
      "Ġprince": 2901,
      "Ġguilty": 2902,
      "Ġshopkeeper": 2903,
      "Ġbottom": 2904,
      "Ġbushes": 2905,
      "Ġcrayon": 2906,
      "Ġimagined": 2907,
      "Ġsurrender": 2908,
      "Ġvaluable": 2909,
      "Ġnuts": 2910,
      "Ġsuccessful": 2911,
      "Ġpirate": 2912,
      "Ġdifficult": 2913,
      "Ġfoolish": 2914,
      "Me": 2915,
      "can": 2916,
      "ipping": 2917,
      "loo": 2918,
      "Ġpay": 2919,
      "ath": 2920,
      "Ġplayer": 2921,
      "illie": 2922,
      "Ġseem": 2923,
      "Ġcoat": 2924,
      "Ġpray": 2925,
      "Ġgrown": 2926,
      "Ġlearning": 2927,
      "Ġpup": 2928,
      "Ġtea": 2929,
      "Ġenjoying": 2930,
      "Ġrubb": 2931,
      "Ġmarble": 2932,
      "Ġmixed": 2933,
      "Ġsugar": 2934,
      "Ġignorant": 2935,
      "Ġtunnel": 2936,
      "Ġflute": 2937,
      "Ġserious": 2938,
      "Ġsafely": 2939,
      "Ġelderly": 2940,
      "Ġhippo": 2941,
      "lower": 2942,
      "Ġtent": 2943,
      "Ġtank": 2944,
      "Ġbored": 2945,
      "Ġfountain": 2946,
      "Ġpurse": 2947,
      "Ġfork": 2948,
      "Ġwhale": 2949,
      "Ġreve": 2950,
      "Ġnosy": 2951,
      "iest": 2952,
      "Ġbranc": 2953,
      "Ġknife": 2954,
      "Ġbloom": 2955,
      "Ġsmaller": 2956,
      "ĠPlease": 2957,
      "Ġkindness": 2958,
      "urtle": 2959,
      "Ġwarned": 2960,
      "Ġdeer": 2961,
      "Ġtowel": 2962,
      "ĠRosie": 2963,
      "Ġcompass": 2964,
      "Ġjuicy": 2965,
      "Ġbathroom": 2966,
      "Ġthinking": 2967,
      "Ġregular": 2968,
      "Ġkayak": 2969,
      "Ġbranches": 2970,
      "dge": 2971,
      "ffe": 2972,
      "iqu": 2973,
      "kin": 2974,
      "yer": 2975,
      "Ġturtle": 2976,
      "Ġborrow": 2977,
      "Ġhurry": 2978,
      "Ġmay": 2979,
      "Ġmap": 2980,
      "Ġgun": 2981,
      "ĠSophie": 2982,
      "ony": 2983,
      "Ġsoap": 2984,
      "Ġweird": 2985,
      "rag": 2986,
      "Ġgoes": 2987,
      "Ġcage": 2988,
      "Ġflash": 2989,
      "Ġgrandpa": 2990,
      "Ġeng": 2991,
      "Ġmov": 2992,
      "Ġstranger": 2993,
      "Ġbeauty": 2994,
      "ĠGo": 2995,
      "Ġuniqu": 2996,
      "Ġrub": 2997,
      "Ġdrawing": 2998,
      "mbol": 2999,
      "Ġshape": 3000,
      "Ġobject": 3001,
      "Ġsailor": 3002,
      "Ġpackage": 3003,
      "Ġbounce": 3004,
      "Ġcourage": 3005,
      "Ġspeed": 3006,
      "Ġbubbles": 3007,
      "Ġparade": 3008,
      "Stop": 3009,
      "Ġcharming": 3010,
      "Ġsymbol": 3011,
      "Ġunique": 3012,
      "heart": 3013,
      "Ġtut": 3014,
      "inal": 3015,
      "Ġbitter": 3016,
      "Ġwand": 3017,
      "Ġcurt": 3018,
      "Ġham": 3019,
      "anic": 3020,
      "iginal": 3021,
      "Ġboss": 3022,
      "ĠJames": 3023,
      "ĠAl": 3024,
      "Ġboys": 3025,
      "Ġvase": 3026,
      "Ġbuilt": 3027,
      "bborn": 3028,
      "Ġpole": 3029,
      "Ġpee": 3030,
      "Ġquite": 3031,
      "Ġtrunk": 3032,
      "Ġoffered": 3033,
      "Ġoriginal": 3034,
      "Ġways": 3035,
      "Ġframe": 3036,
      "Ġmetal": 3037,
      "Ġcandle": 3038,
      "Ġstubborn": 3039,
      "Ġadmired": 3040,
      "Ġlegs": 3041,
      "Ġmissed": 3042,
      "Ġreminded": 3043,
      "Ġinvited": 3044,
      "Ġlawyer": 3045,
      "Ġcheerful": 3046,
      "Ġgasped": 3047,
      "Ġmachine": 3048,
      "Ġcurtain": 3049,
      "Little": 3050,
      "ches": 3051,
      "not": 3052,
      "ubby": 3053,
      "vice": 3054,
      "Ġsudden": 3055,
      "ital": 3056,
      "Ġgho": 3057,
      "Their": 3058,
      "ora": 3059,
      "etit": 3060,
      "irit": 3061,
      "Ġrice": 3062,
      "chie": 3063,
      "Ġbiggest": 3064,
      "ĠMittens": 3065,
      "Ġchubby": 3066,
      "ĠEverything": 3067,
      "Ġclock": 3068,
      "Ġoffice": 3069,
      "Ġraft": 3070,
      "Ġwolf": 3071,
      "Ġboxes": 3072,
      "Ġdrew": 3073,
      "Ġpainter": 3074,
      "olog": 3075,
      "aced": 3076,
      "Ġsweetheart": 3077,
      "Ġrubbed": 3078,
      "Ġtelling": 3079,
      "Ġcompetit": 3080,
      "Ġbelt": 3081,
      "Ġsmoke": 3082,
      "Ġfruits": 3083,
      "Ġadmire": 3084,
      "Ġtravel": 3085,
      "achel": 3086,
      "uzzy": 3087,
      "Ġsuggested": 3088,
      "Ġtutor": 3089,
      "Ġghost": 3090,
      "See": 3091,
      "bled": 3092,
      "cil": 3093,
      "lace": 3094,
      "Ġtummy": 3095,
      "ines": 3096,
      "Ġhears": 3097,
      "Ġcone": 3098,
      "Ġmir": 3099,
      "Ġpit": 3100,
      "Ġoy": 3101,
      "angle": 3102,
      "Ġrep": 3103,
      "Ġresc": 3104,
      "Ġrepe": 3105,
      "icop": 3106,
      "Ġcannot": 3107,
      "Ġnoisy": 3108,
      "Ġmeas": 3109,
      "Ġroar": 3110,
      "Ġrode": 3111,
      "ĠWhile": 3112,
      "Ġlaund": 3113,
      "Ġagainst": 3114,
      "Ġputs": 3115,
      "bbie": 3116,
      "Ġknob": 3117,
      "Ġhosp": 3118,
      "Ġtwig": 3119,
      "ĠcouldnÃ¢": 3120,
      "Ġproudly": 3121,
      "sely": 3122,
      "Ġfamous": 3123,
      "Ġuncom": 3124,
      "Ġprep": 3125,
      "Ġsecond": 3126,
      "Ġcomput": 3127,
      "Ġdoesn": 3128,
      "oomy": 3129,
      "Ġsub": 3130,
      "Ġpencil": 3131,
      "ependent": 3132,
      "Ġcircle": 3133,
      "Ġlifted": 3134,
      "Ġapolog": 3135,
      "uggled": 3136,
      "Ġorganized": 3137,
      "Ġberries": 3138,
      "Ġnecklace": 3139,
      "Ġhelicop": 3140,
      "Ġindependent": 3141,
      "ĠBlue": 3142,
      "cano": 3143,
      "Ġcompassion": 3144,
      "Ġengine": 3145,
      "Ġlaundry": 3146,
      "Ġhospital": 3147,
      "Ġuncomfortable": 3148,
      "Ġhelicopter": 3149,
      "cu": 3150,
      "ext": 3151,
      "hood": 3152,
      "ror": 3153,
      "vet": 3154,
      "ince": 3155,
      "inary": 3156,
      "Ġwagged": 3157,
      "Ġfu": 3158,
      "Ġlamp": 3159,
      "Ġcri": 3160,
      "Ġmaybe": 3161,
      "ison": 3162,
      "issed": 3163,
      "Ġsauce": 3164,
      "iron": 3165,
      "oop": 3166,
      "amond": 3167,
      "elp": 3168,
      "ents": 3169,
      "Ġshut": 3170,
      "Ġshark": 3171,
      "Ġref": 3172,
      "acket": 3173,
      "Ġexper": 3174,
      "Ġlocked": 3175,
      "Ġjet": 3176,
      "Ġtool": 3177,
      "âĤ¬.": 3178,
      "Ġlean": 3179,
      "Ġalert": 3180,
      "Ġmeal": 3181,
      "ĠElly": 3182,
      "Ġknight": 3183,
      "Ġpeek": 3184,
      "Ġtrop": 3185,
      "Ġclosely": 3186,
      "Ġadvice": 3187,
      "Ġcompl": 3188,
      "Ġneeds": 3189,
      "Ġteeth": 3190,
      "Ġglass": 3191,
      "Ġunk": 3192,
      "Ġsniff": 3193,
      "Ġpatch": 3194,
      "Ġlights": 3195,
      "Ġsparkled": 3196,
      "Ġbarn": 3197,
      "Ġdiamond": 3198,
      "Ġwiped": 3199,
      "ĠBrown": 3200,
      "Ġpeeked": 3201,
      "Ġoyster": 3202,
      "Help": 3203,
      "bor": 3204,
      "iv": 3205,
      "nit": 3206,
      "Ġahead": 3207,
      "Ġsna": 3208,
      "erce": 3209,
      "ision": 3210,
      "ĠitÃ¢": 3211,
      "ots": 3212,
      "ĠIf": 3213,
      "Ġhadn": 3214,
      "ĠTed": 3215,
      "Ġresist": 3216,
      "ĠBet": 3217,
      "Ġkissed": 3218,
      "ĠMark": 3219,
      "Ġjacket": 3220,
      "Ġspun": 3221,
      "Ġspirit": 3222,
      "Ġleak": 3223,
      "Ġmem": 3224,
      "Ġrose": 3225,
      "Ġgets": 3226,
      "Ġsadly": 3227,
      "Ġfinding": 3228,
      "Ġpoppy": 3229,
      "ÅĵYou": 3230,
      "Ġmole": 3231,
      "Ġmoder": 3232,
      "Ġslipped": 3233,
      "Ġending": 3234,
      "Ġfierce": 3235,
      "Ġimpat": 3236,
      "ĠJoey": 3237,
      "Ġbutterflies": 3238,
      "Ġdreaming": 3239,
      "Ġhairy": 3240,
      "Ġhung": 3241,
      "Ġtreasures": 3242,
      "Ġquestion": 3243,
      "Ġcarrots": 3244,
      "Ġspinning": 3245,
      "Ġspoke": 3246,
      "Ġtuna": 3247,
      "Ġcooking": 3248,
      "Ġchicken": 3249,
      "ĠMaria": 3250,
      "Ġsilver": 3251,
      "Ġbalance": 3252,
      "Ġtwirled": 3253,
      "ĠLeo": 3254,
      "Ġflashlight": 3255,
      "Ġmodern": 3256,
      "cream": 3257,
      "ded": 3258,
      "ience": 3259,
      "nown": 3260,
      "pet": 3261,
      "ti": 3262,
      "Ġtied": 3263,
      "Ġbark": 3264,
      "Ġfre": 3265,
      "Ġfake": 3266,
      "Ġur": 3267,
      "Ġplayful": 3268,
      "Ġclown": 3269,
      "Ġclap": 3270,
      "Ġcane": 3271,
      "ief": 3272,
      "Ġchange": 3273,
      "Ġchoose": 3274,
      "Ġchanged": 3275,
      "Ġcoco": 3276,
      "Ġcarpet": 3277,
      "ĠDucky": 3278,
      "Ġswan": 3279,
      "ĠFin": 3280,
      "ĠFrank": 3281,
      "ucked": 3282,
      "Ġpepper": 3283,
      "Ġener": 3284,
      "Ġjoined": 3285,
      "ĠPe": 3286,
      "Ġlouder": 3287,
      "Ġdisag": 3288,
      "Ġbrighter": 3289,
      "Ġtells": 3290,
      "Ġrestaur": 3291,
      "Ġlightning": 3292,
      "Ġcrane": 3293,
      "Ġdriving": 3294,
      "Ġdreams": 3295,
      "Ġtriangle": 3296,
      "Ġshoot": 3297,
      "Ġfurnit": 3298,
      "umbers": 3299,
      "Ġcelebrated": 3300,
      "Ġpracticed": 3301,
      "Ġearly": 3302,
      "ÅĵItÃ¢": 3303,
      "Ġgraceful": 3304,
      "Ġfishing": 3305,
      "Ġmovie": 3306,
      "Ġfuel": 3307,
      "Ġtrophy": 3308,
      "Ġimpatient": 3309,
      "Ġcocoa": 3310,
      "Ġrestaurant": 3311,
      "Ġfurniture": 3312,
      "lcano": 3313,
      "oot": 3314,
      "pered": 3315,
      "ym": 3316,
      "ĠU": 3317,
      "Ġled": 3318,
      "Ġmask": 3319,
      "Ġsal": 3320,
      "ĠHenry": 3321,
      "Ġnorm": 3322,
      "Ġnumbers": 3323,
      "Ġsold": 3324,
      "Ġrat": 3325,
      "ĠLola": 3326,
      "Ġhappiness": 3327,
      "Ġshaking": 3328,
      "alk": 3329,
      "Ġspill": 3330,
      "urch": 3331,
      "ict": 3332,
      "Ġthemselves": 3333,
      "Ġsciss": 3334,
      "Ġscoot": 3335,
      "Ġmush": 3336,
      "Ġchase": 3337,
      "Ġvine": 3338,
      "Ġenv": 3339,
      "Ġcloset": 3340,
      "Ġlearnt": 3341,
      "Ġevening": 3342,
      "Ġharder": 3343,
      "Ġfright": 3344,
      "Ġvolcano": 3345,
      "ĠGeorge": 3346,
      "Ġperm": 3347,
      "ations": 3348,
      "Ġgiven": 3349,
      "Ġharbor": 3350,
      "Ġwrapped": 3351,
      "Ġfeathers": 3352,
      "Ġwishes": 3353,
      "Ġwhispered": 3354,
      "Ġdestro": 3355,
      "Ġharmless": 3356,
      "Ġmirror": 3357,
      "Ġfresh": 3358,
      "Ġscissors": 3359,
      "Ġmushroom": 3360,
      "'ve": 3361,
      "If": 3362,
      "Sorry": 3363,
      "fast": 3364,
      "Ġiron": 3365,
      "het": 3366,
      "inked": 3367,
      "Ġban": 3368,
      "Ġfurt": 3369,
      "Ġfrag": 3370,
      "Ġmill": 3371,
      "Ġgym": 3372,
      "Ġthread": 3373,
      "Ġhero": 3374,
      "iggle": 3375,
      "Ġplaced": 3376,
      "Ġweather": 3377,
      "ĠBella": 3378,
      "ugged": 3379,
      "arth": 3380,
      "Ġallowed": 3381,
      "iew": 3382,
      "Ġdecide": 3383,
      "Ġview": 3384,
      "Ġcareless": 3385,
      "Ġpaid": 3386,
      "Ġpale": 3387,
      "Ġhanded": 3388,
      "Ġrare": 3389,
      "Ġunpack": 3390,
      "Ġcleaned": 3391,
      "ĠRo": 3392,
      "Ġzeb": 3393,
      "spap": 3394,
      "Ġcomplet": 3395,
      "Ġbeef": 3396,
      "Ġvisited": 3397,
      "Ġhorn": 3398,
      "Ġattic": 3399,
      "Ġcolours": 3400,
      "Ġbreakfast": 3401,
      "Ġgrowing": 3402,
      "Ġminute": 3403,
      "Everyone": 3404,
      "Ġtroubled": 3405,
      "Ġfootball": 3406,
      "Ġbuttons": 3407,
      "Ġshrimp": 3408,
      "Ġmiser": 3409,
      "ĠRemy": 3410,
      "Ġcushion": 3411,
      "Ġsubway": 3412,
      "Ġunknown": 3413,
      "Ġdestroy": 3414,
      "Ġzebra": 3415,
      "\",": 3416,
      "Peter": 3417,
      "Re": 3418,
      "gu": 3419,
      "hic": 3420,
      "xe": 3421,
      "Ġtem": 3422,
      "Ġaxe": 3423,
      "Ġfat": 3424,
      "Ġfour": 3425,
      "Ġped": 3426,
      "omed": 3427,
      "atter": 3428,
      "ense": 3429,
      "Ġnature": 3430,
      "Ġstri": 3431,
      "Ġstairs": 3432,
      "amber": 3433,
      "ĠBaby": 3434,
      "Ġdove": 3435,
      "Ġspag": 3436,
      "ssible": 3437,
      "Ġchasing": 3438,
      "Ġchurch": 3439,
      "Ġchamber": 3440,
      "Ġnewspap": 3441,
      "ĠDave": 3442,
      "Ġknot": 3443,
      "Ġthoughtful": 3444,
      "Ġcats": 3445,
      "aul": 3446,
      "Ġunl": 3447,
      "Ġwriting": 3448,
      "Ġsteal": 3449,
      "Ġdrop": 3450,
      "Ġvehic": 3451,
      "Ġpushing": 3452,
      "Ġbatter": 3453,
      "Ġsplit": 3454,
      "Ġpoint": 3455,
      "Ġattract": 3456,
      "Ġpige": 3457,
      "Ġreturn": 3458,
      "Ġeggs": 3459,
      "Ġjokes": 3460,
      "Ġmailbox": 3461,
      "Ġclassroom": 3462,
      "Ġmodest": 3463,
      "Ġordinary": 3464,
      "âĤ¬âĢľ": 3465,
      "Ġcomputer": 3466,
      "Ġnormal": 3467,
      "hetti": 3468,
      "Ġfurther": 3469,
      "Ġmiserable": 3470,
      "Ġspaghetti": 3471,
      "gn": 3472,
      "lvet": 3473,
      "night": 3474,
      "zor": 3475,
      "Ġachie": 3476,
      "Ġbent": 3477,
      "Ġhay": 3478,
      "Ġhunt": 3479,
      "Ġcree": 3480,
      "Ġdug": 3481,
      "Ġmelt": 3482,
      "Ġolive": 3483,
      "arlie": 3484,
      "Ġgate": 3485,
      "Ġstared": 3486,
      "Ġstation": 3487,
      "addy": 3488,
      "Ġlibr": 3489,
      "Ġscreen": 3490,
      "Ġagree": 3491,
      "Ġfactor": 3492,
      "Ġcover": 3493,
      "Ġblinked": 3494,
      "Ġpoison": 3495,
      "Ġpebble": 3496,
      "Ġskill": 3497,
      "Ġskirt": 3498,
      "Ġenc": 3499,
      "Ġenvel": 3500,
      "Ġtrade": 3501,
      "Ġjolly": 3502,
      "Ġrazor": 3503,
      "Ġcomfort": 3504,
      "Ġneedle": 3505,
      "Ġended": 3506,
      "Ġimpro": 3507,
      "Ġdiscu": 3508,
      "Ġshouldn": 3509,
      "Ġsquash": 3510,
      "Ġhurts": 3511,
      "ngth": 3512,
      "Ġpatter": 3513,
      "Ġfirework": 3514,
      "Ġclapping": 3515,
      "Ġdreamed": 3516,
      "Ġvelvet": 3517,
      "Ġswinging": 3518,
      "Ġcupboard": 3519,
      "Ġcorn": 3520,
      "Ġobser": 3521,
      "Ġstrength": 3522,
      "Ġharsh": 3523,
      "Ġspring": 3524,
      "Ġberry": 3525,
      "Ġnods": 3526,
      "Ġfrowned": 3527,
      "Ġstraw": 3528,
      "Ġhammer": 3529,
      "Ġbossy": 3530,
      "Ġfrightened": 3531,
      "Ġfragile": 3532,
      "Ġattractive": 3533,
      "Ġfactory": 3534,
      "Ch": 3535,
      "apped": 3536,
      "eve": 3537,
      "gie": 3538,
      "gust": 3539,
      "hip": 3540,
      "sit": 3541,
      "Ġsum": 3542,
      "res": 3543,
      "Ġwashed": 3544,
      "Ġcell": 3545,
      "Ġcity": 3546,
      "Ġmild": 3547,
      "Ġpil": 3548,
      "Ġpant": 3549,
      "lev": 3550,
      "ans": 3551,
      "Ġthief": 3552,
      "Ġearth": 3553,
      "Ġbeg": 3554,
      "ceed": 3555,
      "Ġyet": 3556,
      "vest": 3557,
      "Ġshine": 3558,
      "Ġlicked": 3559,
      "Ġreco": 3560,
      "Ġjail": 3561,
      "Ġfriendship": 3562,
      "Ġfasc": 3563,
      "Ġmuff": 3564,
      "Ġbridge": 3565,
      "Ġgrin": 3566,
      "ucet": 3567,
      "used": 3568,
      "Ġhandle": 3569,
      "Ġcube": 3570,
      "Ġdisgust": 3571,
      "Ġsweetie": 3572,
      "Ġsparkling": 3573,
      "Ġcounting": 3574,
      "astic": 3575,
      "Ġsucceed": 3576,
      "Ġblowing": 3577,
      "Ġexamine": 3578,
      "Grandma": 3579,
      "Ġenvious": 3580,
      "Ġpattern": 3581,
      "Ġpilot": 3582,
      "'.": 3583,
      "lu": 3584,
      "now": 3585,
      "ses": 3586,
      "uzz": 3587,
      "zag": 3588,
      "Ġtire": 3589,
      "Ġaunt": 3590,
      "Ġsize": 3591,
      "Ġtheater": 3592,
      "Ġbet": 3593,
      "Ġbake": 3594,
      "Ġbump": 3595,
      "Ġlend": 3596,
      "Ġpump": 3597,
      "arry": 3598,
      "imney": 3599,
      "Ġinsist": 3600,
      "Ġbeet": 3601,
      "igzag": 3602,
      "chanic": 3603,
      "Ġshocked": 3604,
      "ĠMy": 3605,
      "ĠMay": 3606,
      "Ġloll": 3607,
      "Ġclub": 3608,
      "Ġleop": 3609,
      "Ġstarting": 3610,
      "Ġsomewhere": 3611,
      "Ġmechanic": 3612,
      "Ġlaser": 3613,
      "Ġchimney": 3614,
      "Ġolder": 3615,
      "Ġswamp": 3616,
      "Ġenorm": 3617,
      "ĠJosh": 3618,
      "Ġanywhere": 3619,
      "Ġgloomy": 3620,
      "Ġheaded": 3621,
      "Ġzip": 3622,
      "Ġcreate": 3623,
      "Ġvend": 3624,
      "Ġtries": 3625,
      "Ġwindows": 3626,
      "Ġballoons": 3627,
      "Ġblackboard": 3628,
      "Ġattention": 3629,
      "Ġquietly": 3630,
      "Ġdistant": 3631,
      "Ġinclu": 3632,
      "Ġpastel": 3633,
      "Ġmeeting": 3634,
      "Ġstretch": 3635,
      "Ġrelaxed": 3636,
      "Ġgolden": 3637,
      "Ġfilthy": 3638,
      "Ġpigeon": 3639,
      "Ġlibrary": 3640,
      "Ġsummer": 3641,
      "Ġleopard": 3642,
      "Ġenormous": 3643,
      "Daisy": 3644,
      "Jim": 3645,
      "lid": 3646,
      "sing": 3647,
      "Ġbase": 3648,
      "Ġhook": 3649,
      "ery": 3650,
      "Ġcro": 3651,
      "Ġcudd": 3652,
      "Ġgoose": 3653,
      "Ġgiggle": 3654,
      "ato": 3655,
      "atue": 3656,
      "lend": 3657,
      "ord": 3658,
      "Ġstamp": 3659,
      "Ġstatue": 3660,
      "Ġyaw": 3661,
      "ĠIÃ¢": 3662,
      "ĠTony": 3663,
      "ung": 3664,
      "ĠMillie": 3665,
      "Ġsport": 3666,
      "fume": 3667,
      "Ġfaucet": 3668,
      "ĠWould": 3669,
      "Ġchirp": 3670,
      "Ġvide": 3671,
      "ĠDanny": 3672,
      "Ġholid": 3673,
      "uct": 3674,
      "Ġpicks": 3675,
      "Ġcomb": 3676,
      "ipop": 3677,
      "Ġdelay": 3678,
      "Ġcleaning": 3679,
      "Ġperfume": 3680,
      "Ġlistening": 3681,
      "Ġrules": 3682,
      "Ġtrash": 3683,
      "Ġfloated": 3684,
      "Ġveil": 3685,
      "Ġbags": 3686,
      "Ġreading": 3687,
      "Ġdesign": 3688,
      "Ġmixer": 3689,
      "Ġbounced": 3690,
      "Ġkicked": 3691,
      "Ġfolder": 3692,
      "Ġflutter": 3693,
      "Ġriding": 3694,
      "Ġrubber": 3695,
      "Ġrepair": 3696,
      "Ġcompassionate": 3697,
      "Ġenergy": 3698,
      "Ġbanana": 3699,
      "Ġnewspaper": 3700,
      "Ġcreek": 3701,
      "Ġencou": 3702,
      "Ġenvelope": 3703,
      "Ġpants": 3704,
      "Ġrecogn": 3705,
      "Ġfascin": 3706,
      "Ġlollipop": 3707,
      "Ġvendor": 3708,
      "Ġholiday": 3709,
      "Are": 3710,
      "Jenny": 3711,
      "Sp": 3712,
      "cast": 3713,
      "fa": 3714,
      "pid": 3715,
      "ron": 3716,
      "zing": 3717,
      "ĠOK": 3718,
      "Ġsuff": 3719,
      "Ġhoop": 3720,
      "ress": 3721,
      "Ġpad": 3722,
      "Ġpipe": 3723,
      "Ġoat": 3724,
      "Ġsaus": 3725,
      "Ġnail": 3726,
      "Ġsheep": 3727,
      "Ġrug": 3728,
      "Ġyach": 3729,
      "ric": 3730,
      "ĠLilly": 3731,
      "alley": 3732,
      "Ġrever": 3733,
      "seum": 3734,
      "ĠJu": 3735,
      "Ġisn": 3736,
      "Ġcoins": 3737,
      "Ġcoffe": 3738,
      "Ġvan": 3739,
      "Ġjogged": 3740,
      "inky": 3741,
      "Ġmass": 3742,
      "Ġclimbing": 3743,
      "ĠRachel": 3744,
      "Ġfloating": 3745,
      "Ġmessage": 3746,
      "Ġcounted": 3747,
      "Ġfields": 3748,
      "Ġwheat": 3749,
      "Ġprov": 3750,
      "gging": 3751,
      "Ġimagination": 3752,
      "Ġrolling": 3753,
      "Ġorganize": 3754,
      "Ġwandered": 3755,
      "Emma": 3756,
      "Ġstretched": 3757,
      "ÅĵThatÃ¢": 3758,
      "Ġawe": 3759,
      "Ġyogurt": 3760,
      "Ġprize": 3761,
      "Ġseeds": 3762,
      "Ġrevealed": 3763,
      "Ġrefres": 3764,
      "Ġscooter": 3765,
      "Ġvehicle": 3766,
      "Ġdisgusting": 3767,
      "Ġbeetle": 3768,
      "Ġyacht": 3769,
      "Ġcoffee": 3770,
      "flower": 3771,
      "par": 3772,
      "Ġtucked": 3773,
      "Ġlow": 3774,
      "Ġdig": 3775,
      "Ġpor": 3776,
      "Ġpow": 3777,
      "Ġpra": 3778,
      "ĠLook": 3779,
      "unately": 3780,
      "alph": 3781,
      "ecause": 3782,
      "urried": 3783,
      "Ġsepar": 3784,
      "reeze": 3785,
      "Ġscale": 3786,
      "Ġscatter": 3787,
      "Ġmuseum": 3788,
      "ellig": 3789,
      "Ġknown": 3790,
      "Ġintellig": 3791,
      "ĠdidnÃ¢": 3792,
      "Ġtray": 3793,
      "Ġtrump": 3794,
      "Ġnicely": 3795,
      "Ġdeliver": 3796,
      "Ġshouting": 3797,
      "Ġsandcast": 3798,
      "Ġcrazy": 3799,
      "Ġperfectly": 3800,
      "scope": 3801,
      "Ġbelow": 3802,
      "Ġcountry": 3803,
      "Ġstupid": 3804,
      "Ġbouncing": 3805,
      "Ġsurround": 3806,
      "ĠChirp": 3807,
      "Ġlemonade": 3808,
      "Ġstirred": 3809,
      "Ġavo": 3810,
      "Ġdisagreed": 3811,
      "nowy": 3812,
      "Spot": 3813,
      "Ġtrumpet": 3814,
      "An": 3815,
      "Mr": 3816,
      "ab": 3817,
      "ci": 3818,
      "noon": 3819,
      "ĠZ": 3820,
      "Ġwire": 3821,
      "Ġhut": 3822,
      "Ġfan": 3823,
      "Ġlid": 3824,
      "Ġcries": 3825,
      "Ġpian": 3826,
      "ĠSh": 3827,
      "ĠSnowy": 3828,
      "ooped": 3829,
      "Ġsoar": 3830,
      "ĠTr": 3831,
      "Ġonion": 3832,
      "Ġweal": 3833,
      "Ġrequ": 3834,
      "Ġreward": 3835,
      "illa": 3836,
      "Ġlose": 3837,
      "Ġart": 3838,
      "Ġhelpless": 3839,
      "Ġcalend": 3840,
      "Ġscrew": 3841,
      "roscope": 3842,
      "aggie": 3843,
      "ĠWhere": 3844,
      "Ġmusc": 3845,
      "Ġbuzz": 3846,
      "Ġswitch": 3847,
      "Ġexplain": 3848,
      "Ġskipping": 3849,
      "Ġsunset": 3850,
      "ement": 3851,
      "ĠPat": 3852,
      "ips": 3853,
      "Ġamazement": 3854,
      "Ġafternoon": 3855,
      "Thanks": 3856,
      "Ġzipper": 3857,
      "Ġfloat": 3858,
      "Ġsoftly": 3859,
      "Ġairport": 3860,
      "Ġpretending": 3861,
      "Ġsuper": 3862,
      "Ġstud": 3863,
      "Ġsnowman": 3864,
      "ÅĵIÃ¢": 3865,
      "ailable": 3866,
      "Ġmystery": 3867,
      "ĠTweetie": 3868,
      "Ġgifted": 3869,
      "Ġcarrying": 3870,
      "Ġeagerly": 3871,
      "Ġsplashing": 3872,
      "Ġpeanuts": 3873,
      "Ġavailable": 3874,
      "Ġscrat": 3875,
      "Ġcherry": 3876,
      "Ġmicroscope": 3877,
      "Ġneighbourhood": 3878,
      "Ġleaned": 3879,
      "Ġcomplain": 3880,
      "Ġspilled": 3881,
      "Ġskills": 3882,
      "Ġmassage": 3883,
      "Ġintelligent": 3884,
      "Ġpiano": 3885,
      "Ġcalendar": 3886,
      "Will": 3887,
      "af": 3888,
      "ait": 3889,
      "eed": 3890,
      "gen": 3891,
      "oe": 3892,
      "was": 3893,
      "Ġing": 3894,
      "Ġsle": 3895,
      "nda": 3896,
      "ither": 3897,
      "Ġluck": 3898,
      "Ġwashing": 3899,
      "Ġdough": 3900,
      "Ġpine": 3901,
      "aroo": 3902,
      "Ġga": 3903,
      "Ġgear": 3904,
      "ates": 3905,
      "Ġhall": 3906,
      "ories": 3907,
      "Ġitch": 3908,
      "Ġthu": 3909,
      "Ġinf": 3910,
      "Ġinvest": 3911,
      "Ġeff": 3912,
      "igate": 3913,
      "ĠIs": 3914,
      "Ġforth": 3915,
      "una": 3916,
      "Ġshiver": 3917,
      "Ġrece": 3918,
      "Ġkang": 3919,
      "!\",": 3920,
      "Ġarg": 3921,
      "indy": 3922,
      "iches": 3923,
      "Ġnobody": 3924,
      "Ġmanage": 3925,
      "Ġworm": 3926,
      "Ġroared": 3927,
      "ĠElla": 3928,
      "Ġlab": 3929,
      "Ġputting": 3930,
      "Ġflag": 3931,
      "Ġswe": 3932,
      "Ġknock": 3933,
      "Ġpeach": 3934,
      "Ġyours": 3935,
      "Ġquit": 3936,
      "Ġsunflower": 3937,
      "Ġshows": 3938,
      "Ġoffer": 3939,
      "emo": 3940,
      "ĠPaul": 3941,
      "ĠCar": 3942,
      "Ġteleph": 3943,
      "Ġglove": 3944,
      "Ġnowhere": 3945,
      "Ġtremb": 3946,
      "Ġshoulder": 3947,
      "Ġblueberry": 3948,
      "Ġappro": 3949,
      "Ġboats": 3950,
      "Ġdressed": 3951,
      "Ġcrow": 3952,
      "Ġsleeping": 3953,
      "redient": 3954,
      "Ġcooler": 3955,
      "Ġwhistling": 3956,
      "Ġcrawl": 3957,
      "Ġpolish": 3958,
      "Ġbene": 3959,
      "Ġspoiled": 3960,
      "Ġburn": 3961,
      "ĠFreddy": 3962,
      "Ġchickens": 3963,
      "Emily": 3964,
      "Ġticket": 3965,
      "Ġsneeze": 3966,
      "Ġdishwas": 3967,
      "Ġcompetitive": 3968,
      "Ġrescue": 3969,
      "Ġcrib": 3970,
      "Ġmemories": 3971,
      "Ġpumpkin": 3972,
      "Ġfascinated": 3973,
      "Ġingredient": 3974,
      "Ġkangaroo": 3975,
      "Ġtelephone": 3976,
      "Ġdishwasher": 3977,
      "Because": 3978,
      "Go": 3979,
      "While": 3980,
      "Yay": 3981,
      "aff": 3982,
      "big": 3983,
      "cut": 3984,
      "ef": 3985,
      "lier": 3986,
      "ues": 3987,
      "Ġsent": 3988,
      "Ġbreeze": 3989,
      "Ġtooth": 3990,
      "reci": 3991,
      "erc": 3992,
      "erry": 3993,
      "Ġhedge": 3994,
      "Ġcam": 3995,
      "Ġcur": 3996,
      "Ġgum": 3997,
      "Ġgro": 3998,
      "net": 3999,
      "any": 4000,
      "Ġthirst": 4001,
      "Ġherb": 4002,
      "Ġink": 4003,
      "Ġnation": 4004,
      "Ġbeamed": 4005,
      "ppers": 4006,
      "Ġradi": 4007,
      "Ġplastic": 4008,
      "Ġfort": 4009,
      "Ġreef": 4010,
      "Ġexerc": 4011,
      "Ġgoal": 4012,
      "Ġspade": 4013,
      "urb": 4014,
      "icer": 4015,
      "Ġscare": 4016,
      "Ġcost": 4017,
      "Ġvalley": 4018,
      "ÅĵLook": 4019,
      "Ġquar": 4020,
      "Ġbeak": 4021,
      "ected": 4022,
      "Ġdancer": 4023,
      "Ġdishes": 4024,
      "Ġrabbits": 4025,
      "Ġsnuggled": 4026,
      "Ġappreci": 4027,
      "Ġhoping": 4028,
      "Ġbehave": 4029,
      "Ġtaller": 4030,
      "Ġpressed": 4031,
      "Ġdrawer": 4032,
      "ĠKate": 4033,
      "Ġthanks": 4034,
      "Ġmarry": 4035,
      "Ġmarched": 4036,
      "Ġunderstanding": 4037,
      "Ġbread": 4038,
      "Ġpetals": 4039,
      "Ġcounter": 4040,
      "Ġpengu": 4041,
      "Ġdisturb": 4042,
      "Ġcreatures": 4043,
      "Ġsolved": 4044,
      "Ġearlier": 4045,
      "Ġpastry": 4046,
      "Ġenth": 4047,
      "Ġpassport": 4048,
      "Ġmissile": 4049,
      "Ġletters": 4050,
      "Ġspeak": 4051,
      "Ġsandwiches": 4052,
      "Ġmotorcy": 4053,
      "Ġwrap": 4054,
      "Ġmistakes": 4055,
      "Ġshells": 4056,
      "Ġmodel": 4057,
      "Ġringing": 4058,
      "Ġfilm": 4059,
      "Ġyoga": 4060,
      "Ġpoured": 4061,
      "Ġcartoon": 4062,
      "Ġsettle": 4063,
      "Ġstrawberry": 4064,
      "Ġrequest": 4065,
      "Ġinvestigate": 4066,
      "Ġeffort": 4067,
      "Ġbeneath": 4068,
      "Ġingredients": 4069,
      "bigail": 4070,
      "Ġcamera": 4071,
      "Ġradio": 4072,
      "Ġmotorcycle": 4073,
      "By": 4074,
      "Eventually": 4075,
      "Is": 4076,
      "Mandy": 4077,
      "Susie": 4078,
      "With": 4079,
      "ah": 4080,
      "az": 4081,
      "cad": 4082,
      "ibb": 4083,
      "low": 4084,
      "nam": 4085,
      "pes": 4086,
      "xious": 4087,
      "Ġhesit": 4088,
      "Ġpalm": 4089,
      "ising": 4090,
      "Ġgust": 4091,
      "ator": 4092,
      "Ġsaving": 4093,
      "celet": 4094,
      "Ġstack": 4095
    },
    "merges": [
      [
        "h",
        "e"
      ],
      [
        "Ġ",
        "t"
      ],
      [
        "Ġ",
        "a"
      ],
      [
        "Ġ",
        "s"
      ],
      [
        "Ġ",
        "w"
      ],
      [
        "n",
        "d"
      ],
      [
        "Ġt",
        "he"
      ],
      [
        "e",
        "d"
      ],
      [
        "i",
        "n"
      ],
      [
        "Ġa",
        "nd"
      ],
      [
        "Ġ",
        "b"
      ],
      [
        "Ġt",
        "o"
      ],
      [
        "Ġw",
        "a"
      ],
      [
        "Ġ",
        "h"
      ],
      [
        "r",
        "e"
      ],
      [
        "i",
        "t"
      ],
      [
        "Ġ",
        "f"
      ],
      [
        "o",
        "u"
      ],
      [
        "e",
        "r"
      ],
      [
        "Ġ",
        "l"
      ],
      [
        "Ġ",
        "he"
      ],
      [
        "Ġwa",
        "s"
      ],
      [
        "Ġ",
        "c"
      ],
      [
        "Ġ",
        "d"
      ],
      [
        "Ġ",
        "m"
      ],
      [
        "Ġ",
        "p"
      ],
      [
        "Ġ",
        "o"
      ],
      [
        "in",
        "g"
      ],
      [
        "o",
        "m"
      ],
      [
        "a",
        "r"
      ],
      [
        "a",
        "y"
      ],
      [
        "i",
        "s"
      ],
      [
        "Ġ",
        "g"
      ],
      [
        "T",
        "he"
      ],
      [
        "i",
        "d"
      ],
      [
        "a",
        "t"
      ],
      [
        "l",
        "l"
      ],
      [
        "e",
        "n"
      ],
      [
        "Ġs",
        "a"
      ],
      [
        "n",
        "e"
      ],
      [
        "Ġh",
        "a"
      ],
      [
        "i",
        "m"
      ],
      [
        "l",
        "e"
      ],
      [
        "Ġ",
        "S"
      ],
      [
        "a",
        "n"
      ],
      [
        "o",
        "r"
      ],
      [
        "Ġ",
        "it"
      ],
      [
        "Ġt",
        "h"
      ],
      [
        "Ġ",
        "The"
      ],
      [
        "e",
        "t"
      ],
      [
        "Ġ",
        "H"
      ],
      [
        "i",
        "l"
      ],
      [
        "o",
        "n"
      ],
      [
        "Ġhe",
        "r"
      ],
      [
        "i",
        "r"
      ],
      [
        "v",
        "er"
      ],
      [
        "Ġ",
        "in"
      ],
      [
        "Ġ",
        "e"
      ],
      [
        "ĠH",
        "e"
      ],
      [
        "Ġ",
        "n"
      ],
      [
        "o",
        "t"
      ],
      [
        "l",
        "d"
      ],
      [
        "ĠS",
        "he"
      ],
      [
        "u",
        "t"
      ],
      [
        "o",
        "w"
      ],
      [
        "Ġ",
        "u"
      ],
      [
        "Ġb",
        "e"
      ],
      [
        "c",
        "k"
      ],
      [
        "c",
        "e"
      ],
      [
        "Ġsa",
        "id"
      ],
      [
        "Ġs",
        "he"
      ],
      [
        "i",
        "g"
      ],
      [
        "Ġs",
        "t"
      ],
      [
        "o",
        "o"
      ],
      [
        "Ġs",
        "o"
      ],
      [
        "p",
        "p"
      ],
      [
        "Ġ",
        "r"
      ],
      [
        "Ġ",
        "\""
      ],
      [
        "a",
        "m"
      ],
      [
        "Ġ",
        "y"
      ],
      [
        "k",
        "e"
      ],
      [
        "Ġo",
        "f"
      ],
      [
        "v",
        "e"
      ],
      [
        "it",
        "h"
      ],
      [
        "s",
        "t"
      ],
      [
        "k",
        "ed"
      ],
      [
        "Ġh",
        "is"
      ],
      [
        "ver",
        "y"
      ],
      [
        "Ġw",
        "ith"
      ],
      [
        "r",
        "i"
      ],
      [
        "Ġd",
        "ay"
      ],
      [
        "Ġ",
        "I"
      ],
      [
        "n",
        "t"
      ],
      [
        "a",
        "d"
      ],
      [
        "Ġp",
        "l"
      ],
      [
        "Ġu",
        "p"
      ],
      [
        "Ġth",
        "at"
      ],
      [
        "ĠThe",
        "y"
      ],
      [
        "Ġha",
        "d"
      ],
      [
        "Ġy",
        "ou"
      ],
      [
        "il",
        "y"
      ],
      [
        "it",
        "t"
      ],
      [
        "ou",
        "ld"
      ],
      [
        "e",
        "l"
      ],
      [
        "Ġ",
        "T"
      ],
      [
        "en",
        "t"
      ],
      [
        "Ġo",
        "n"
      ],
      [
        "Ġ",
        "Ċ"
      ],
      [
        "e",
        "s"
      ],
      [
        "Ġpl",
        "ay"
      ],
      [
        "Ġf",
        "or"
      ],
      [
        "Ġ",
        "L"
      ],
      [
        "Ġthe",
        "y"
      ],
      [
        "Ġw",
        "e"
      ],
      [
        "m",
        "y"
      ],
      [
        "itt",
        "le"
      ],
      [
        "ou",
        "nd"
      ],
      [
        "u",
        "n"
      ],
      [
        "ou",
        "t"
      ],
      [
        "Ġl",
        "ittle"
      ],
      [
        "'",
        "s"
      ],
      [
        "c",
        "h"
      ],
      [
        "Ġm",
        "om"
      ],
      [
        "Ġha",
        "pp"
      ],
      [
        "l",
        "y"
      ],
      [
        "im",
        "e"
      ],
      [
        "Ġthe",
        "re"
      ],
      [
        "he",
        "r"
      ],
      [
        "Ġt",
        "ime"
      ],
      [
        "a",
        "ll"
      ],
      [
        "Ġs",
        "m"
      ],
      [
        "Ġs",
        "h"
      ],
      [
        "Ġ",
        "very"
      ],
      [
        "Ġl",
        "i"
      ],
      [
        "h",
        "t"
      ],
      [
        "Ġw",
        "h"
      ],
      [
        "Ġ",
        "ne"
      ],
      [
        "Ġ",
        "re"
      ],
      [
        "om",
        "e"
      ],
      [
        "Ġ",
        "B"
      ],
      [
        "a",
        "l"
      ],
      [
        "Ġwa",
        "nt"
      ],
      [
        "s",
        "e"
      ],
      [
        "Ġd",
        "o"
      ],
      [
        "e",
        "nd"
      ],
      [
        "a",
        "ck"
      ],
      [
        "Ġ",
        "k"
      ],
      [
        "Ġa",
        "s"
      ],
      [
        "O",
        "n"
      ],
      [
        "Ġhapp",
        "y"
      ],
      [
        "Ġb",
        "ig"
      ],
      [
        "Ġa",
        "n"
      ],
      [
        "Ġb",
        "ut"
      ],
      [
        "On",
        "ce"
      ],
      [
        "r",
        "a"
      ],
      [
        "O",
        "ne"
      ],
      [
        "Ġsa",
        "w"
      ],
      [
        "ri",
        "end"
      ],
      [
        "Ġf",
        "riend"
      ],
      [
        "v",
        "ed"
      ],
      [
        "Ġl",
        "oo"
      ],
      [
        "'",
        "t"
      ],
      [
        "ir",
        "l"
      ],
      [
        "o",
        "re"
      ],
      [
        "ĠL",
        "ily"
      ],
      [
        "a",
        "ke"
      ],
      [
        "e",
        "c"
      ],
      [
        "u",
        "g"
      ],
      [
        "Ġg",
        "irl"
      ],
      [
        "id",
        "e"
      ],
      [
        "t",
        "er"
      ],
      [
        "Ġ",
        "M"
      ],
      [
        "Ġb",
        "o"
      ],
      [
        "ĠI",
        "t"
      ],
      [
        "Ġwe",
        "re"
      ],
      [
        "Ġe",
        "x"
      ],
      [
        "i",
        "ll"
      ],
      [
        "Ġ",
        "J"
      ],
      [
        "Ġup",
        "on"
      ],
      [
        "r",
        "y"
      ],
      [
        "Ġh",
        "im"
      ],
      [
        "Ġn",
        "ot"
      ],
      [
        "Ġl",
        "o"
      ],
      [
        "Ġg",
        "o"
      ],
      [
        "!",
        "\""
      ],
      [
        "Ġ",
        "j"
      ],
      [
        "ar",
        "d"
      ],
      [
        ".",
        "\""
      ],
      [
        "Ġ",
        "out"
      ],
      [
        "Ġs",
        "p"
      ],
      [
        "f",
        "u"
      ],
      [
        "Ġwant",
        "ed"
      ],
      [
        "Ġa",
        "r"
      ],
      [
        "Ġc",
        "ould"
      ],
      [
        "w",
        "ay"
      ],
      [
        "Ġto",
        "o"
      ],
      [
        "he",
        "n"
      ],
      [
        "u",
        "r"
      ],
      [
        "Ġ",
        "is"
      ],
      [
        "Ã",
        "¢"
      ],
      [
        "â",
        "Ĥ"
      ],
      [
        "âĤ",
        "¬"
      ],
      [
        "h",
        "ing"
      ],
      [
        "Ġs",
        "e"
      ],
      [
        "i",
        "nd"
      ],
      [
        "a",
        "in"
      ],
      [
        "ĠT",
        "im"
      ],
      [
        "i",
        "c"
      ],
      [
        "ar",
        "t"
      ],
      [
        "Ġa",
        "t"
      ],
      [
        "Ġa",
        "ll"
      ],
      [
        "Ġ",
        "A"
      ],
      [
        "he",
        "d"
      ],
      [
        "Ġw",
        "ent"
      ],
      [
        "u",
        "m"
      ],
      [
        "il",
        "ed"
      ],
      [
        "fu",
        "l"
      ],
      [
        "ig",
        "ht"
      ],
      [
        "r",
        "om"
      ],
      [
        "Ġsm",
        "iled"
      ],
      [
        "l",
        "p"
      ],
      [
        "Ġar",
        "ound"
      ],
      [
        "Ġthe",
        "m"
      ],
      [
        "Ġfriend",
        "s"
      ],
      [
        "Ġhe",
        "lp"
      ],
      [
        "Ġn",
        "am"
      ],
      [
        "ou",
        "g"
      ],
      [
        "oo",
        "d"
      ],
      [
        "Ġb",
        "ack"
      ],
      [
        "Ġd",
        "id"
      ],
      [
        "Ġc",
        "l"
      ],
      [
        "ar",
        "k"
      ],
      [
        "om",
        "et"
      ],
      [
        "s",
        "s"
      ],
      [
        "Ġas",
        "ked"
      ],
      [
        "?",
        "\""
      ],
      [
        "Ġthe",
        "ir"
      ],
      [
        "Ġc",
        "a"
      ],
      [
        "Ġha",
        "ve"
      ],
      [
        "Ġf",
        "un"
      ],
      [
        "Ġc",
        "an"
      ],
      [
        "Ġloo",
        "ked"
      ],
      [
        "Ġs",
        "omet"
      ],
      [
        "Ġbo",
        "y"
      ],
      [
        "Ġl",
        "e"
      ],
      [
        "o",
        "ne"
      ],
      [
        "s",
        "ide"
      ],
      [
        "Ġst",
        "art"
      ],
      [
        "Ġa",
        "l"
      ],
      [
        "u",
        "re"
      ],
      [
        "el",
        "t"
      ],
      [
        "Ġf",
        "e"
      ],
      [
        "Ġw",
        "ould"
      ],
      [
        "Ġf",
        "elt"
      ],
      [
        "i",
        "ck"
      ],
      [
        "o",
        "p"
      ],
      [
        "Ġlo",
        "ved"
      ],
      [
        "Ġnam",
        "ed"
      ],
      [
        "Ġn",
        "o"
      ],
      [
        "d",
        "d"
      ],
      [
        "g",
        "et"
      ],
      [
        "Ġ",
        "One"
      ],
      [
        "Ġa",
        "re"
      ],
      [
        "am",
        "e"
      ],
      [
        "it",
        "ed"
      ],
      [
        "Ġex",
        "c"
      ],
      [
        "Ġm",
        "an"
      ],
      [
        "i",
        "e"
      ],
      [
        "re",
        "e"
      ],
      [
        "Ġsomet",
        "hing"
      ],
      [
        "k",
        "ing"
      ],
      [
        "i",
        "ce"
      ],
      [
        "on",
        "g"
      ],
      [
        "Ġw",
        "or"
      ],
      [
        "Ġli",
        "ke"
      ],
      [
        "Ġs",
        "c"
      ],
      [
        "Ġb",
        "ir"
      ],
      [
        "Ġstart",
        "ed"
      ],
      [
        "r",
        "o"
      ],
      [
        "Ġs",
        "ome"
      ],
      [
        "get",
        "her"
      ],
      [
        "Ġa",
        "g"
      ],
      [
        "Ġbir",
        "d"
      ],
      [
        "Ġm",
        "e"
      ],
      [
        "Ġf",
        "a"
      ],
      [
        "Ġr",
        "o"
      ],
      [
        "Ġ",
        "E"
      ],
      [
        "Ġse",
        "e"
      ],
      [
        "ĠTim",
        "my"
      ],
      [
        "ad",
        "e"
      ],
      [
        "a",
        "g"
      ],
      [
        "Ġ",
        "W"
      ],
      [
        "ow",
        "n"
      ],
      [
        "pp",
        "ed"
      ],
      [
        "Ġa",
        "way"
      ],
      [
        "Ġexc",
        "ited"
      ],
      [
        "Ġto",
        "gether"
      ],
      [
        "p",
        "l"
      ],
      [
        "ing",
        "s"
      ],
      [
        "Ġr",
        "an"
      ],
      [
        "ou",
        "d"
      ],
      [
        "Ġto",
        "y"
      ],
      [
        "ĠB",
        "en"
      ],
      [
        "Ġwh",
        "at"
      ],
      [
        "Ġthe",
        "n"
      ],
      [
        "ar",
        "ed"
      ],
      [
        "Ġm",
        "ake"
      ],
      [
        "Ġm",
        "u"
      ],
      [
        "b",
        "le"
      ],
      [
        "i",
        "f"
      ],
      [
        "Ġh",
        "ome"
      ],
      [
        "Ġl",
        "a"
      ],
      [
        "Y",
        "ou"
      ],
      [
        "Ġc",
        "h"
      ],
      [
        "all",
        "y"
      ],
      [
        "Ġm",
        "ade"
      ],
      [
        "Ġwa",
        "l"
      ],
      [
        "q",
        "u"
      ],
      [
        "h",
        "at"
      ],
      [
        "ĠT",
        "om"
      ],
      [
        "Ġag",
        "ain"
      ],
      [
        "a",
        "s"
      ],
      [
        "Ġf",
        "ound"
      ],
      [
        "Ġp",
        "ark"
      ],
      [
        "Ġf",
        "rom"
      ],
      [
        ",",
        "\""
      ],
      [
        "Ġd",
        "ec"
      ],
      [
        "e",
        "ll"
      ],
      [
        "Ġw",
        "hen"
      ],
      [
        "Ġne",
        "w"
      ],
      [
        "Ġb",
        "r"
      ],
      [
        "ou",
        "s"
      ],
      [
        "Ġc",
        "o"
      ],
      [
        "e",
        "p"
      ],
      [
        "Ġwh",
        "o"
      ],
      [
        "oug",
        "ht"
      ],
      [
        "Ġe",
        "very"
      ],
      [
        "Ġo",
        "t"
      ],
      [
        "Ġg",
        "et"
      ],
      [
        "Ġp",
        "ut"
      ],
      [
        "ĠB",
        "ut"
      ],
      [
        "Ġplay",
        "ing"
      ],
      [
        "Ġot",
        "her"
      ],
      [
        "Ġo",
        "ne"
      ],
      [
        "Ġsa",
        "d"
      ],
      [
        "i",
        "le"
      ],
      [
        "u",
        "dd"
      ],
      [
        "id",
        "ed"
      ],
      [
        "Ġp",
        "r"
      ],
      [
        "Ġdec",
        "ided"
      ],
      [
        "Ġf",
        "l"
      ],
      [
        "Ġc",
        "ar"
      ],
      [
        "Ġo",
        "ld"
      ],
      [
        "a",
        "ve"
      ],
      [
        "Ġ",
        "v"
      ],
      [
        "Ġg",
        "ot"
      ],
      [
        "Ġb",
        "u"
      ],
      [
        "Ġh",
        "ug"
      ],
      [
        "b",
        "b"
      ],
      [
        "Ġs",
        "ay"
      ],
      [
        "Ġg",
        "ood"
      ],
      [
        "Ġth",
        "ings"
      ],
      [
        "a",
        "ch"
      ],
      [
        "ri",
        "ed"
      ],
      [
        "Ġ",
        "D"
      ],
      [
        "n",
        "y"
      ],
      [
        "u",
        "st"
      ],
      [
        "Ġth",
        "an"
      ],
      [
        "ec",
        "i"
      ],
      [
        "ou",
        "se"
      ],
      [
        "Ġbe",
        "c"
      ],
      [
        "Ġfe",
        "el"
      ],
      [
        "Ġf",
        "ind"
      ],
      [
        "Ġd",
        "own"
      ],
      [
        "udd",
        "en"
      ],
      [
        "Ġ",
        "ke"
      ],
      [
        "Ġs",
        "w"
      ],
      [
        "Ġk",
        "n"
      ],
      [
        "Ġc",
        "ame"
      ],
      [
        "eci",
        "al"
      ],
      [
        "Ġsp",
        "ecial"
      ],
      [
        "way",
        "s"
      ],
      [
        "Ġb",
        "l"
      ],
      [
        "udden",
        "ly"
      ],
      [
        "Ġt",
        "ree"
      ],
      [
        "Ġa",
        "b"
      ],
      [
        "nd",
        "er"
      ],
      [
        "Ġal",
        "ways"
      ],
      [
        "Ġl",
        "ot"
      ],
      [
        "Ġsc",
        "ared"
      ],
      [
        "u",
        "e"
      ],
      [
        "Ġk",
        "ne"
      ],
      [
        "Ġp",
        "o"
      ],
      [
        "c",
        "hed"
      ],
      [
        "Ġt",
        "ake"
      ],
      [
        "Ġth",
        "ought"
      ],
      [
        "Ġin",
        "t"
      ],
      [
        "oo",
        "k"
      ],
      [
        "an",
        "t"
      ],
      [
        "Ġ",
        "F"
      ],
      [
        "is",
        "t"
      ],
      [
        "Ġg",
        "ra"
      ],
      [
        "ou",
        "r"
      ],
      [
        "g",
        "e"
      ],
      [
        "it",
        "e"
      ],
      [
        "Ġab",
        "out"
      ],
      [
        "Ġca",
        "re"
      ],
      [
        "Ġd",
        "ad"
      ],
      [
        "Ġg",
        "r"
      ],
      [
        "Ġex",
        "pl"
      ],
      [
        "Ġtoo",
        "k"
      ],
      [
        "ĠE",
        "very"
      ],
      [
        "Ġloo",
        "k"
      ],
      [
        "en",
        "ed"
      ],
      [
        "Ġdid",
        "n"
      ],
      [
        "f",
        "e"
      ],
      [
        "is",
        "e"
      ],
      [
        "Ġli",
        "ked"
      ],
      [
        "Ġla",
        "ug"
      ],
      [
        "Å",
        "ĵ"
      ],
      [
        "f",
        "ter"
      ],
      [
        "u",
        "ck"
      ],
      [
        "Ġ",
        "You"
      ],
      [
        "m",
        "a"
      ],
      [
        "Ġp",
        "e"
      ],
      [
        "re",
        "at"
      ],
      [
        "Ġt",
        "a"
      ],
      [
        "L",
        "ily"
      ],
      [
        "Ġp",
        "a"
      ],
      [
        "Ġkne",
        "w"
      ],
      [
        "v",
        "en"
      ],
      [
        "Ġdo",
        "g"
      ],
      [
        "Ġh",
        "o"
      ],
      [
        "Ġm",
        "ore"
      ],
      [
        "Ġyou",
        "r"
      ],
      [
        "Ġout",
        "side"
      ],
      [
        "Ġt",
        "w"
      ],
      [
        "er",
        "s"
      ],
      [
        "Ġc",
        "at"
      ],
      [
        "Ġs",
        "k"
      ],
      [
        "n",
        "ed"
      ],
      [
        "Ġcould",
        "n"
      ],
      [
        "i",
        "ve"
      ],
      [
        "Ġ",
        "en"
      ],
      [
        "ĠJ",
        "o"
      ],
      [
        "Ġh",
        "ow"
      ],
      [
        "Ġm",
        "y"
      ],
      [
        "a",
        "ce"
      ],
      [
        "Ġ",
        "qu"
      ],
      [
        "Ġmu",
        "ch"
      ],
      [
        "ll",
        "y"
      ],
      [
        "b",
        "y"
      ],
      [
        "g",
        "ed"
      ],
      [
        "u",
        "c"
      ],
      [
        "Ġ",
        "Ã¢"
      ],
      [
        "Ġs",
        "un"
      ],
      [
        "Ġm",
        "o"
      ],
      [
        "re",
        "t"
      ],
      [
        "i",
        "on"
      ],
      [
        "Ġne",
        "ver"
      ],
      [
        "Ġint",
        "o"
      ],
      [
        "Ġt",
        "r"
      ],
      [
        "ar",
        "a"
      ],
      [
        "Ġo",
        "ver"
      ],
      [
        "Ġan",
        "y"
      ],
      [
        "ĠM",
        "om"
      ],
      [
        "Ġj",
        "o"
      ],
      [
        "Ġkn",
        "ow"
      ],
      [
        "Ġpr",
        "oud"
      ],
      [
        "Ġcl",
        "o"
      ],
      [
        "u",
        "s"
      ],
      [
        "Ġle",
        "ar"
      ],
      [
        "a",
        "x"
      ],
      [
        "Ġsh",
        "ow"
      ],
      [
        "Ġth",
        "is"
      ],
      [
        "Ġst",
        "r"
      ],
      [
        "oug",
        "h"
      ],
      [
        "ĠJ",
        "ack"
      ],
      [
        "h",
        "n"
      ],
      [
        "Ġ",
        "if"
      ],
      [
        "Ġhe",
        "ard"
      ],
      [
        "Ġmom",
        "my"
      ],
      [
        "Ġsay",
        "s"
      ],
      [
        "p",
        "t"
      ],
      [
        "v",
        "ent"
      ],
      [
        "is",
        "h"
      ],
      [
        "Ġin",
        "side"
      ],
      [
        "n",
        "ing"
      ],
      [
        "a",
        "u"
      ],
      [
        "Ġc",
        "all"
      ],
      [
        "Ġa",
        "d"
      ],
      [
        "Ġo",
        "p"
      ],
      [
        "ot",
        "h"
      ],
      [
        "Ġw",
        "ill"
      ],
      [
        "Ġh",
        "ouse"
      ],
      [
        "Ġf",
        "o"
      ],
      [
        "il",
        "d"
      ],
      [
        "d",
        "y"
      ],
      [
        "Ġb",
        "all"
      ],
      [
        "e",
        "ar"
      ],
      [
        "Ġha",
        "nd"
      ],
      [
        "Ġto",
        "ld"
      ],
      [
        "Ġof",
        "f"
      ],
      [
        "B",
        "ut"
      ],
      [
        "or",
        "t"
      ],
      [
        "s",
        "el"
      ],
      [
        "Ġg",
        "ave"
      ],
      [
        "v",
        "ing"
      ],
      [
        "Ġsm",
        "all"
      ],
      [
        "Ġtoy",
        "s"
      ],
      [
        "ot",
        "her"
      ],
      [
        "âĤ¬",
        "â"
      ],
      [
        "he",
        "re"
      ],
      [
        "n",
        "a"
      ],
      [
        "Ġwa",
        "t"
      ],
      [
        "Ġwa",
        "ter"
      ],
      [
        "Ġj",
        "ust"
      ],
      [
        "Ġr",
        "a"
      ],
      [
        "Ġbe",
        "a"
      ],
      [
        "ĠS",
        "o"
      ],
      [
        "nt",
        "il"
      ],
      [
        "Ġp",
        "ick"
      ],
      [
        "Ġr",
        "un"
      ],
      [
        "au",
        "se"
      ],
      [
        "um",
        "p"
      ],
      [
        "Ġc",
        "om"
      ],
      [
        "The",
        "y"
      ],
      [
        "Ġu",
        "ntil"
      ],
      [
        "Ġl",
        "ong"
      ],
      [
        "Ġbea",
        "ut"
      ],
      [
        "ur",
        "p"
      ],
      [
        "Ġt",
        "ried"
      ],
      [
        "at",
        "e"
      ],
      [
        "Ġro",
        "om"
      ],
      [
        "Ġthan",
        "ked"
      ],
      [
        "Ġt",
        "ry"
      ],
      [
        "ad",
        "y"
      ],
      [
        "Ħ",
        "¢"
      ],
      [
        "âĤ¬â",
        "Ħ¢"
      ],
      [
        "Ġbec",
        "ause"
      ],
      [
        "an",
        "k"
      ],
      [
        "a",
        "p"
      ],
      [
        "Ġlot",
        "s"
      ],
      [
        "Ġg",
        "ard"
      ],
      [
        "Ġgard",
        "en"
      ],
      [
        "et",
        "ter"
      ],
      [
        "Ġplay",
        "ed"
      ],
      [
        "Ġe",
        "ven"
      ],
      [
        "uc",
        "y"
      ],
      [
        "Ġs",
        "l"
      ],
      [
        "Ġne",
        "ed"
      ],
      [
        "Ġe",
        "at"
      ],
      [
        "t",
        "y"
      ],
      [
        "Ġb",
        "y"
      ],
      [
        "ĠS",
        "am"
      ],
      [
        "in",
        "k"
      ],
      [
        "sel",
        "f"
      ],
      [
        "Ġbeaut",
        "i"
      ],
      [
        "e",
        "m"
      ],
      [
        "Ġbeauti",
        "ful"
      ],
      [
        "Ġo",
        "r"
      ],
      [
        "Ġcall",
        "ed"
      ],
      [
        "Ġhug",
        "ged"
      ],
      [
        "i",
        "z"
      ],
      [
        "Ġlaug",
        "hed"
      ],
      [
        "n",
        "na"
      ],
      [
        "Ġwa",
        "y"
      ],
      [
        "Ġbe",
        "st"
      ],
      [
        "a",
        "ne"
      ],
      [
        "c",
        "t"
      ],
      [
        "Ġe",
        "nd"
      ],
      [
        "Ġfl",
        "ow"
      ],
      [
        "a",
        "nd"
      ],
      [
        "er",
        "ed"
      ],
      [
        "in",
        "e"
      ],
      [
        "o",
        "b"
      ],
      [
        "s",
        "ed"
      ],
      [
        "Ġsk",
        "y"
      ],
      [
        "le",
        "w"
      ],
      [
        "Ġbe",
        "ar"
      ],
      [
        "ĠM",
        "ax"
      ],
      [
        "re",
        "nt"
      ],
      [
        "im",
        "al"
      ],
      [
        "Ġtw",
        "o"
      ],
      [
        "Ġan",
        "imal"
      ],
      [
        "f",
        "t"
      ],
      [
        "W",
        "hen"
      ],
      [
        "i",
        "a"
      ],
      [
        "Ġ",
        "im"
      ],
      [
        "Ġp",
        "ret"
      ],
      [
        "Ġexpl",
        "ore"
      ],
      [
        "Ġe",
        "ach"
      ],
      [
        "Ġp",
        "u"
      ],
      [
        "I",
        "t"
      ],
      [
        "Ġw",
        "o"
      ],
      [
        "Ġbo",
        "x"
      ],
      [
        "Ġc",
        "u"
      ],
      [
        "ĠH",
        "is"
      ],
      [
        "ra",
        "ve"
      ],
      [
        "'",
        "m"
      ],
      [
        "Ġd",
        "on"
      ],
      [
        "H",
        "e"
      ],
      [
        "M",
        "om"
      ],
      [
        "Ġd",
        "re"
      ],
      [
        "Ġfa",
        "st"
      ],
      [
        "es",
        "s"
      ],
      [
        "Ġli",
        "ved"
      ],
      [
        "Ġc",
        "he"
      ],
      [
        "Ġb",
        "etter"
      ],
      [
        "Ġn",
        "ice"
      ],
      [
        "ĠH",
        "er"
      ],
      [
        "ec",
        "t"
      ],
      [
        "Ġad",
        "vent"
      ],
      [
        "Ġf",
        "am"
      ],
      [
        "Ġke",
        "pt"
      ],
      [
        "in",
        "y"
      ],
      [
        "Ġman",
        "y"
      ],
      [
        "Ġb",
        "oth"
      ],
      [
        "urp",
        "r"
      ],
      [
        "Y",
        "es"
      ],
      [
        "Ġ",
        "P"
      ],
      [
        "L",
        "et"
      ],
      [
        "Ġs",
        "urpr"
      ],
      [
        "Ġsm",
        "ile"
      ],
      [
        "Ġc",
        "le"
      ],
      [
        "Ġk",
        "ind"
      ],
      [
        "Ġj",
        "ump"
      ],
      [
        "ĠS",
        "ara"
      ],
      [
        "Ġst",
        "ay"
      ],
      [
        "S",
        "o"
      ],
      [
        "Ġ",
        "C"
      ],
      [
        "ĠThe",
        "n"
      ],
      [
        "Ġh",
        "ard"
      ],
      [
        "Ġf",
        "lew"
      ],
      [
        "a",
        "re"
      ],
      [
        "Ġm",
        "um"
      ],
      [
        "Ġc",
        "ome"
      ],
      [
        "Ġf",
        "in"
      ],
      [
        "f",
        "ore"
      ],
      [
        "Ġre",
        "m"
      ],
      [
        "or",
        "ry"
      ],
      [
        "W",
        "hat"
      ],
      [
        "Ġit",
        "s"
      ],
      [
        "Ġfeel",
        "ing"
      ],
      [
        "Ġso",
        "on"
      ],
      [
        "Ġb",
        "rave"
      ],
      [
        "ur",
        "t"
      ],
      [
        "Ġt",
        "e"
      ],
      [
        "Ġg",
        "l"
      ],
      [
        "Ġwal",
        "ked"
      ],
      [
        "is",
        "ed"
      ],
      [
        "Ġst",
        "ill"
      ],
      [
        "Ġadvent",
        "ure"
      ],
      [
        "ĠL",
        "ucy"
      ],
      [
        "Ġf",
        "ly"
      ],
      [
        "Ġfam",
        "ily"
      ],
      [
        "Ġf",
        "i"
      ],
      [
        "ĠA",
        "nd"
      ],
      [
        "Ġst",
        "o"
      ],
      [
        "T",
        "h"
      ],
      [
        "Ġco",
        "l"
      ],
      [
        "ig",
        "h"
      ],
      [
        "ic",
        "ed"
      ],
      [
        "Ġlo",
        "ve"
      ],
      [
        "l",
        "ed"
      ],
      [
        "Ġbe",
        "fore"
      ],
      [
        "ĠF",
        "rom"
      ],
      [
        "Ġcare",
        "ful"
      ],
      [
        "Ġlear",
        "ned"
      ],
      [
        "Ġf",
        "ore"
      ],
      [
        "Ġl",
        "oud"
      ],
      [
        "Ġc",
        "on"
      ],
      [
        "op",
        "le"
      ],
      [
        "Ġanimal",
        "s"
      ],
      [
        "Ġo",
        "w"
      ],
      [
        "Ġpl",
        "ace"
      ],
      [
        "Ġs",
        "orry"
      ],
      [
        "ar",
        "y"
      ],
      [
        "Ġwal",
        "king"
      ],
      [
        "Ġy",
        "ear"
      ],
      [
        "g",
        "ry"
      ],
      [
        "Ġf",
        "ar"
      ],
      [
        "i",
        "p"
      ],
      [
        "i",
        "es"
      ],
      [
        "Ġu",
        "nder"
      ],
      [
        "Ġsa",
        "fe"
      ],
      [
        "oo",
        "l"
      ],
      [
        "Ġgo",
        "ing"
      ],
      [
        "T",
        "om"
      ],
      [
        "ĠW",
        "e"
      ],
      [
        "o",
        "y"
      ],
      [
        "Ġim",
        "p"
      ],
      [
        "i",
        "ed"
      ],
      [
        "Ġn",
        "ow"
      ],
      [
        "ill",
        "y"
      ],
      [
        "s",
        "h"
      ],
      [
        "ĠS",
        "uddenly"
      ],
      [
        "ĠW",
        "hen"
      ],
      [
        "Ġsto",
        "pped"
      ],
      [
        "Ġf",
        "r"
      ],
      [
        "Ġpe",
        "ople"
      ],
      [
        "Ġnot",
        "iced"
      ],
      [
        "x",
        "t"
      ],
      [
        "T",
        "hat"
      ],
      [
        "Ġl",
        "ist"
      ],
      [
        "g",
        "an"
      ],
      [
        "Ġqu",
        "ick"
      ],
      [
        "a",
        "se"
      ],
      [
        "J",
        "o"
      ],
      [
        "Ġl",
        "et"
      ],
      [
        "Ġd",
        "el"
      ],
      [
        "j",
        "oy"
      ],
      [
        "Ġd",
        "an"
      ],
      [
        "T",
        "im"
      ],
      [
        "ĠA",
        "nna"
      ],
      [
        "o",
        "lly"
      ],
      [
        "ma",
        "z"
      ],
      [
        "t",
        "hing"
      ],
      [
        "Ġa",
        "maz"
      ],
      [
        "Ġth",
        "ree"
      ],
      [
        "is",
        "hed"
      ],
      [
        "dd",
        "ed"
      ],
      [
        "Ġst",
        "or"
      ],
      [
        "bb",
        "it"
      ],
      [
        "i",
        "ous"
      ],
      [
        "Ġop",
        "ened"
      ],
      [
        "s",
        "er"
      ],
      [
        "Ġe",
        "y"
      ],
      [
        "Ġw",
        "ind"
      ],
      [
        "Ġevery",
        "one"
      ],
      [
        "Ġ",
        "ide"
      ],
      [
        "Ġm",
        "a"
      ],
      [
        "e",
        "et"
      ],
      [
        "Ġv",
        "o"
      ],
      [
        "ĠJo",
        "hn"
      ],
      [
        "S",
        "uddenly"
      ],
      [
        "an",
        "ge"
      ],
      [
        "Ġquick",
        "ly"
      ],
      [
        "ug",
        "ht"
      ],
      [
        "Ġwa",
        "r"
      ],
      [
        "Ġd",
        "is"
      ],
      [
        "Ġd",
        "e"
      ],
      [
        "Ġr",
        "ed"
      ],
      [
        "Ġwh",
        "ile"
      ],
      [
        "Ġen",
        "joy"
      ],
      [
        "Ġke",
        "ep"
      ],
      [
        "Ġra",
        "bbit"
      ],
      [
        "Ġide",
        "a"
      ],
      [
        "t",
        "ing"
      ],
      [
        "Ġto",
        "w"
      ],
      [
        "Ġth",
        "r"
      ],
      [
        "Ġ",
        "G"
      ],
      [
        "Ġg",
        "reat"
      ],
      [
        "Ġgr",
        "ound"
      ],
      [
        "is",
        "y"
      ],
      [
        "Ġloo",
        "king"
      ],
      [
        "he",
        "s"
      ],
      [
        "Ġwo",
        "nder"
      ],
      [
        "um",
        "my"
      ],
      [
        "g",
        "er"
      ],
      [
        "Ġt",
        "re"
      ],
      [
        "Ġsh",
        "ould"
      ],
      [
        "Ġwor",
        "k"
      ],
      [
        "ag",
        "e"
      ],
      [
        "Ġdo",
        "or"
      ],
      [
        "em",
        "b"
      ],
      [
        "ĠB",
        "ob"
      ],
      [
        "Ġu",
        "n"
      ],
      [
        "Ġsh",
        "iny"
      ],
      [
        "Ġre",
        "pl"
      ],
      [
        "Ġbe",
        "en"
      ],
      [
        "Ġch",
        "ild"
      ],
      [
        "Ġt",
        "ur"
      ],
      [
        "Ġvo",
        "ice"
      ],
      [
        "Ġw",
        "r"
      ],
      [
        "Ġne",
        "xt"
      ],
      [
        "Ġb",
        "ed"
      ],
      [
        "Ġe",
        "ver"
      ],
      [
        "Ġs",
        "n"
      ],
      [
        "Ġm",
        "or"
      ],
      [
        "Ġbr",
        "ight"
      ],
      [
        "Ġrem",
        "emb"
      ],
      [
        "t",
        "ed"
      ],
      [
        "Ġpick",
        "ed"
      ],
      [
        "f",
        "f"
      ],
      [
        "Ġ",
        "N"
      ],
      [
        "ĠJ",
        "ane"
      ],
      [
        "by",
        "e"
      ],
      [
        "Ġfa",
        "ce"
      ],
      [
        "Ġey",
        "es"
      ],
      [
        "h",
        "y"
      ],
      [
        "n",
        "er"
      ],
      [
        "ĠD",
        "ad"
      ],
      [
        "Ġre",
        "al"
      ],
      [
        "Ġno",
        "dded"
      ],
      [
        "a",
        "k"
      ],
      [
        "Ġfore",
        "st"
      ],
      [
        "Ġa",
        "fter"
      ],
      [
        "Ġcu",
        "ri"
      ],
      [
        "u",
        "ch"
      ],
      [
        "Ġne",
        "ar"
      ],
      [
        "Ġwal",
        "k"
      ],
      [
        "Ġrepl",
        "ied"
      ],
      [
        "Ġro",
        "ck"
      ],
      [
        "Ġgood",
        "bye"
      ],
      [
        "Ġcle",
        "an"
      ],
      [
        "Ġno",
        "ise"
      ],
      [
        "a",
        "isy"
      ],
      [
        "Ġd",
        "ra"
      ],
      [
        "Ġbe",
        "gan"
      ],
      [
        "Ġclo",
        "ser"
      ],
      [
        "a",
        "ble"
      ],
      [
        "Ġc",
        "ry"
      ],
      [
        "Ġg",
        "ive"
      ],
      [
        "Ġpret",
        "ty"
      ],
      [
        "Ġs",
        "qu"
      ],
      [
        "Ġsh",
        "are"
      ],
      [
        "Ġhand",
        "s"
      ],
      [
        "Ġcuri",
        "ous"
      ],
      [
        "Ġg",
        "re"
      ],
      [
        "bb",
        "ed"
      ],
      [
        "Ġh",
        "urt"
      ],
      [
        "Ġp",
        "er"
      ],
      [
        "Ġf",
        "ood"
      ],
      [
        "Ġp",
        "ain"
      ],
      [
        "o",
        "ck"
      ],
      [
        "l",
        "ie"
      ],
      [
        "Ġp",
        "ic"
      ],
      [
        "Ġbl",
        "ue"
      ],
      [
        "ĠA",
        "s"
      ],
      [
        "ir",
        "st"
      ],
      [
        "Ġb",
        "ad"
      ],
      [
        "Ġwa",
        "it"
      ],
      [
        "Ġa",
        "pp"
      ],
      [
        "Ġs",
        "ound"
      ],
      [
        "Ġd",
        "if"
      ],
      [
        "Ġwat",
        "ched"
      ],
      [
        "Ġstr",
        "ong"
      ],
      [
        "Ġtr",
        "uck"
      ],
      [
        "d",
        "ay"
      ],
      [
        "Ġb",
        "ook"
      ],
      [
        "Ġf",
        "ish"
      ],
      [
        "Ġbe",
        "ing"
      ],
      [
        "Ġr",
        "ight"
      ],
      [
        "Ġcol",
        "or"
      ],
      [
        "Ġwor",
        "ld"
      ],
      [
        "n",
        "g"
      ],
      [
        "ir",
        "ed"
      ],
      [
        "b",
        "e"
      ],
      [
        "Ġb",
        "it"
      ],
      [
        "ĠM",
        "ia"
      ],
      [
        "Jo",
        "hn"
      ],
      [
        "le",
        "s"
      ],
      [
        "ĠJo",
        "e"
      ],
      [
        "Ġwat",
        "ch"
      ],
      [
        "Ġm",
        "ag"
      ],
      [
        "im",
        "b"
      ],
      [
        "Ġdo",
        "ll"
      ],
      [
        "Ġbec",
        "ame"
      ],
      [
        "Ġsh",
        "out"
      ],
      [
        "ĠEvery",
        "one"
      ],
      [
        "Ġcl",
        "imb"
      ],
      [
        "Ġ",
        "-"
      ],
      [
        "Ġle",
        "ave"
      ],
      [
        "Ġbo",
        "at"
      ],
      [
        "Ġthr",
        "ough"
      ],
      [
        "ll",
        "ow"
      ],
      [
        "Ġy",
        "ell"
      ],
      [
        "u",
        "ll"
      ],
      [
        "st",
        "er"
      ],
      [
        "ĠMom",
        "my"
      ],
      [
        "Ġs",
        "ure"
      ],
      [
        "Ġan",
        "gry"
      ],
      [
        "N",
        "o"
      ],
      [
        "k",
        "ay"
      ],
      [
        "Ġbut",
        "ter"
      ],
      [
        "Ġst",
        "ore"
      ],
      [
        "o",
        "on"
      ],
      [
        "Ġhe",
        "re"
      ],
      [
        "Ġm",
        "ouse"
      ],
      [
        "Ġn",
        "ight"
      ],
      [
        "Ġyear",
        "s"
      ],
      [
        "Ġho",
        "pped"
      ],
      [
        "Ġa",
        "c"
      ],
      [
        "Ġw",
        "here"
      ],
      [
        "Ġhe",
        "ad"
      ],
      [
        "ĠD",
        "aisy"
      ],
      [
        "Ġshow",
        "ed"
      ],
      [
        "Ġ",
        "R"
      ],
      [
        "re",
        "am"
      ],
      [
        "Ġcon",
        "t"
      ],
      [
        "s",
        "o"
      ],
      [
        "pp",
        "y"
      ],
      [
        "Ġr",
        "ain"
      ],
      [
        "Ġse",
        "en"
      ],
      [
        "a",
        "ched"
      ],
      [
        "Ġre",
        "ady"
      ],
      [
        "Ġfo",
        "llow"
      ],
      [
        "Ġflow",
        "ers"
      ],
      [
        "Ġt",
        "al"
      ],
      [
        "Ġf",
        "ill"
      ],
      [
        "Ġdif",
        "fe"
      ],
      [
        "Ġwh",
        "y"
      ],
      [
        "Ġwar",
        "m"
      ],
      [
        "Ġgra",
        "bbed"
      ],
      [
        "t",
        "ure"
      ],
      [
        "Ġf",
        "irst"
      ],
      [
        "Ġimp",
        "ort"
      ],
      [
        "Ġwa",
        "ved"
      ],
      [
        "Th",
        "ank"
      ],
      [
        "Ġal",
        "so"
      ],
      [
        "o",
        "l"
      ],
      [
        "Ġmag",
        "ic"
      ],
      [
        "Ġh",
        "igh"
      ],
      [
        "ĠS",
        "ue"
      ],
      [
        "Ġnam",
        "e"
      ],
      [
        "Ġjump",
        "ed"
      ],
      [
        "a",
        "c"
      ],
      [
        "le",
        "ep"
      ],
      [
        "Ġu",
        "se"
      ],
      [
        "Ġhapp",
        "ened"
      ],
      [
        "z",
        "y"
      ],
      [
        "ĠS",
        "p"
      ],
      [
        "fu",
        "lly"
      ],
      [
        "Ġdre",
        "ss"
      ],
      [
        "Ġdiffe",
        "rent"
      ],
      [
        "Ġimport",
        "ant"
      ],
      [
        "Ġre",
        "ally"
      ],
      [
        "Ġlist",
        "en"
      ],
      [
        "Ġu",
        "s"
      ],
      [
        "iz",
        "ed"
      ],
      [
        "Ġflow",
        "er"
      ],
      [
        "Ġt",
        "ired"
      ],
      [
        "ou",
        "nt"
      ],
      [
        "Ġst",
        "e"
      ],
      [
        "Ġha",
        "ving"
      ],
      [
        "Ġpa",
        "rent"
      ],
      [
        "Ġb",
        "ro"
      ],
      [
        "Ġsw",
        "eet"
      ],
      [
        "B",
        "en"
      ],
      [
        "Ġw",
        "ood"
      ],
      [
        "Ġg",
        "ame"
      ],
      [
        "Ġgra",
        "ss"
      ],
      [
        "A",
        "fter"
      ],
      [
        "S",
        "he"
      ],
      [
        "it",
        "c"
      ],
      [
        "Ġpic",
        "ture"
      ],
      [
        "Ġrun",
        "ning"
      ],
      [
        "J",
        "ack"
      ],
      [
        "Ġb",
        "a"
      ],
      [
        "Ġsurpr",
        "ise"
      ],
      [
        "ck",
        "et"
      ],
      [
        "Ġper",
        "f"
      ],
      [
        "m",
        "er"
      ],
      [
        "Ġre",
        "ached"
      ],
      [
        "Ġdo",
        "ne"
      ],
      [
        "Ġbutter",
        "f"
      ],
      [
        "H",
        "er"
      ],
      [
        "Ġb",
        "ug"
      ],
      [
        "Ġl",
        "ady"
      ],
      [
        "Ġc",
        "r"
      ],
      [
        "un",
        "ny"
      ],
      [
        "Ġshout",
        "ed"
      ],
      [
        "Ġp",
        "at"
      ],
      [
        "Ġhim",
        "self"
      ],
      [
        "Ġparent",
        "s"
      ],
      [
        "\"",
        "."
      ],
      [
        "re",
        "n"
      ],
      [
        "at",
        "her"
      ],
      [
        "le",
        "ase"
      ],
      [
        "Ġth",
        "ing"
      ],
      [
        "Ġop",
        "en"
      ],
      [
        "Ġth",
        "ink"
      ],
      [
        "Ġr",
        "u"
      ],
      [
        "Mom",
        "my"
      ],
      [
        "Ġdel",
        "ic"
      ],
      [
        "w",
        "here"
      ],
      [
        "ĠSara",
        "h"
      ],
      [
        "Ġ",
        "z"
      ],
      [
        "Ġf",
        "ro"
      ],
      [
        "Ġta",
        "st"
      ],
      [
        "i",
        "ent"
      ],
      [
        "Ġt",
        "ell"
      ],
      [
        "Ġh",
        "op"
      ],
      [
        "Ġre",
        "st"
      ],
      [
        "Ġk",
        "id"
      ],
      [
        "Ġenjoy",
        "ed"
      ],
      [
        "Ġbe",
        "h"
      ],
      [
        "Ġstor",
        "y"
      ],
      [
        "Ġcare",
        "fully"
      ],
      [
        "Ġgl",
        "ad"
      ],
      [
        "Ġfill",
        "ed"
      ],
      [
        "Ġs",
        "et"
      ],
      [
        "Ġhelp",
        "ed"
      ],
      [
        "Ġsa",
        "nd"
      ],
      [
        "Ġfi",
        "re"
      ],
      [
        "Ġon",
        "ly"
      ],
      [
        "Ġwonder",
        "ful"
      ],
      [
        "Ġchild",
        "ren"
      ],
      [
        "u",
        "ff"
      ],
      [
        "im",
        "es"
      ],
      [
        "Ġbird",
        "s"
      ],
      [
        "m",
        "ore"
      ],
      [
        "ĠA",
        "fter"
      ],
      [
        "Ġany",
        "more"
      ],
      [
        "Ġcl",
        "a"
      ],
      [
        "ll",
        "ed"
      ],
      [
        "Ġmor",
        "ning"
      ],
      [
        "Ġgre",
        "en"
      ],
      [
        "Ġsl",
        "ow"
      ],
      [
        "t",
        "h"
      ],
      [
        "u",
        "ed"
      ],
      [
        "Ġt",
        "ra"
      ],
      [
        "Ġc",
        "reat"
      ],
      [
        "Ġhapp",
        "ily"
      ],
      [
        "e",
        "st"
      ],
      [
        "Ġd",
        "ark"
      ],
      [
        "Ġst",
        "ick"
      ],
      [
        "Ġwor",
        "ked"
      ],
      [
        "C",
        "an"
      ],
      [
        "p",
        "er"
      ],
      [
        "at",
        "ion"
      ],
      [
        "am",
        "a"
      ],
      [
        "Ġp",
        "ie"
      ],
      [
        "ss",
        "ed"
      ],
      [
        "Ġcom",
        "ing"
      ],
      [
        "ĠSp",
        "ot"
      ],
      [
        "Ġto",
        "p"
      ],
      [
        "Ġf",
        "ull"
      ],
      [
        "Ġcat",
        "ch"
      ],
      [
        "Ġl",
        "ight"
      ],
      [
        "is",
        "s"
      ],
      [
        "Ġsm",
        "ell"
      ],
      [
        "Ġar",
        "ri"
      ],
      [
        "u",
        "l"
      ],
      [
        "Ġk",
        "itc"
      ],
      [
        "ĠM",
        "olly"
      ],
      [
        "Ġkitc",
        "hen"
      ],
      [
        "ĠI",
        "n"
      ],
      [
        "Ġas",
        "k"
      ],
      [
        "Ġwor",
        "ry"
      ],
      [
        "Ġfa",
        "v"
      ],
      [
        "ĠE",
        "m"
      ],
      [
        "re",
        "l"
      ],
      [
        "Ġm",
        "on"
      ],
      [
        "Ġbr",
        "other"
      ],
      [
        "Ġstr",
        "ange"
      ],
      [
        "L",
        "ook"
      ],
      [
        "a",
        "ught"
      ],
      [
        "Ġt",
        "all"
      ],
      [
        "Ġbutterf",
        "ly"
      ],
      [
        "Ġfro",
        "g"
      ],
      [
        "Ġa",
        "m"
      ],
      [
        "Ġd",
        "in"
      ],
      [
        "Ġher",
        "self"
      ],
      [
        "Ġsp",
        "ot"
      ],
      [
        "Ġunder",
        "st"
      ],
      [
        "k",
        "en"
      ],
      [
        "ay",
        "be"
      ],
      [
        "Ġfor",
        "g"
      ],
      [
        "Ġa",
        "ble"
      ],
      [
        "nd",
        "ma"
      ],
      [
        "ĠS",
        "ally"
      ],
      [
        "Ġsurpr",
        "ised"
      ],
      [
        "Ġarri",
        "ved"
      ],
      [
        "Ġc",
        "ra"
      ],
      [
        "Ġd",
        "ri"
      ],
      [
        "Ġfl",
        "o"
      ],
      [
        "S",
        "ara"
      ],
      [
        "ĠL",
        "et"
      ],
      [
        "Ġamaz",
        "ing"
      ],
      [
        "ard",
        "s"
      ],
      [
        "Ġat",
        "e"
      ],
      [
        "Ġmo",
        "ve"
      ],
      [
        "in",
        "ally"
      ],
      [
        "re",
        "ed"
      ],
      [
        "or",
        "ing"
      ],
      [
        "Ġb",
        "unny"
      ],
      [
        "Ġd",
        "r"
      ],
      [
        "Ġso",
        "ft"
      ],
      [
        "Ġs",
        "at"
      ],
      [
        "Ġme",
        "an"
      ],
      [
        "Ġpo",
        "nd"
      ],
      [
        "Ġen",
        "ough"
      ],
      [
        "s",
        "y"
      ],
      [
        "in",
        "ed"
      ],
      [
        "Ġo",
        "kay"
      ],
      [
        "Ġy",
        "ummy"
      ],
      [
        "D",
        "on"
      ],
      [
        "s",
        "p"
      ],
      [
        "Ġu",
        "sed"
      ],
      [
        "Ġfin",
        "ished"
      ],
      [
        "Ġl",
        "ess"
      ],
      [
        "Ġdre",
        "am"
      ],
      [
        "Ġma",
        "king"
      ],
      [
        "Ġkid",
        "s"
      ],
      [
        "W",
        "e"
      ],
      [
        "i",
        "ver"
      ],
      [
        "Ġm",
        "other"
      ],
      [
        "ar",
        "ing"
      ],
      [
        "ro",
        "om"
      ],
      [
        "Ġrememb",
        "ered"
      ],
      [
        "Ġh",
        "id"
      ],
      [
        "ĠT",
        "h"
      ],
      [
        "ĠT",
        "o"
      ],
      [
        "Ġfe",
        "ll"
      ],
      [
        "Ġpr",
        "in"
      ],
      [
        "Ġlear",
        "n"
      ],
      [
        "Tim",
        "my"
      ],
      [
        "Ġtre",
        "es"
      ],
      [
        "Ġcont",
        "in"
      ],
      [
        "Ġha",
        "s"
      ],
      [
        "Ġdelic",
        "ious"
      ],
      [
        "ar",
        "s"
      ],
      [
        "Ġfe",
        "w"
      ],
      [
        "Ġperf",
        "ect"
      ],
      [
        "Ġpie",
        "ce"
      ],
      [
        "Ġs",
        "ing"
      ],
      [
        "Ġp",
        "re"
      ],
      [
        "at",
        "ed"
      ],
      [
        "ĠT",
        "hat"
      ],
      [
        "Ġbeh",
        "ind"
      ],
      [
        "b",
        "er"
      ],
      [
        "Ġs",
        "leep"
      ],
      [
        "at",
        "er"
      ],
      [
        "Ġp",
        "rom"
      ],
      [
        "ig",
        "n"
      ],
      [
        "Ġst",
        "op"
      ],
      [
        "Ġsw",
        "im"
      ],
      [
        "Ġyell",
        "ow"
      ],
      [
        "'",
        "re"
      ],
      [
        "A",
        "s"
      ],
      [
        "il",
        "a"
      ],
      [
        "Ġget",
        "ting"
      ],
      [
        "Ġd",
        "ro"
      ],
      [
        "Ġtry",
        "ing"
      ],
      [
        "A",
        "t"
      ],
      [
        "H",
        "is"
      ],
      [
        "Ġ",
        "ve"
      ],
      [
        "im",
        "my"
      ],
      [
        "Ġc",
        "ook"
      ],
      [
        "Ġli",
        "on"
      ],
      [
        "Ġany",
        "thing"
      ],
      [
        "Ġa",
        "ir"
      ],
      [
        "Ġgo",
        "ne"
      ],
      [
        "Ġfun",
        "ny"
      ],
      [
        "as",
        "ure"
      ],
      [
        "Ġow",
        "n"
      ],
      [
        "Ġreal",
        "ized"
      ],
      [
        "Ġwood",
        "s"
      ],
      [
        "Ġfo",
        "x"
      ],
      [
        "Ġha",
        "ir"
      ],
      [
        "Ġcontin",
        "ued"
      ],
      [
        "r",
        "ed"
      ],
      [
        "s",
        "c"
      ],
      [
        "Ġjo",
        "y"
      ],
      [
        "Ġsl",
        "ide"
      ],
      [
        "Ġfriend",
        "ly"
      ],
      [
        "ro",
        "ss"
      ],
      [
        "Ġfa",
        "ir"
      ],
      [
        "c",
        "ed"
      ],
      [
        "Ġhe",
        "ld"
      ],
      [
        "The",
        "n"
      ],
      [
        "Ġho",
        "le"
      ],
      [
        "Ġpu",
        "ppy"
      ],
      [
        "Ġfin",
        "ally"
      ],
      [
        "Ġdra",
        "w"
      ],
      [
        "Ġle",
        "ft"
      ],
      [
        "Ġde",
        "ep"
      ],
      [
        "g",
        "on"
      ],
      [
        "Ġt",
        "ri"
      ],
      [
        "Ġto",
        "uch"
      ],
      [
        "Ġy",
        "es"
      ],
      [
        "Ġwr",
        "ong"
      ],
      [
        "b",
        "o"
      ],
      [
        "i",
        "ke"
      ],
      [
        "l",
        "ing"
      ],
      [
        "Ġm",
        "ess"
      ],
      [
        "Ġp",
        "art"
      ],
      [
        "ĠThe",
        "re"
      ],
      [
        "Ġco",
        "ld"
      ],
      [
        "Ġg",
        "ent"
      ],
      [
        "ir",
        "rel"
      ],
      [
        "Ġneed",
        "ed"
      ],
      [
        "Ġfollow",
        "ed"
      ],
      [
        "u",
        "ally"
      ],
      [
        "i",
        "ch"
      ],
      [
        "Ġp",
        "us"
      ],
      [
        "pp",
        "ing"
      ],
      [
        "ic",
        "y"
      ],
      [
        "as",
        "k"
      ],
      [
        "Ġb",
        "ow"
      ],
      [
        "Ġc",
        "ut"
      ],
      [
        "Ġdo",
        "ing"
      ],
      [
        "Ġfi",
        "x"
      ],
      [
        "c",
        "o"
      ],
      [
        "Ġb",
        "at"
      ],
      [
        "Ġmom",
        "ent"
      ],
      [
        "Ġleave",
        "s"
      ],
      [
        "'",
        "ll"
      ],
      [
        "Ġs",
        "ec"
      ],
      [
        "ĠJ",
        "ill"
      ],
      [
        "Ġag",
        "reed"
      ],
      [
        "Ġlook",
        "s"
      ],
      [
        "Ġcom",
        "p"
      ],
      [
        "Ġbl",
        "ock"
      ],
      [
        "et",
        "er"
      ],
      [
        "Ġpret",
        "end"
      ],
      [
        "a",
        "v"
      ],
      [
        "Ġ",
        "K"
      ],
      [
        "Ġe",
        "l"
      ],
      [
        "Ġbr",
        "ought"
      ],
      [
        "Ġsqu",
        "irrel"
      ],
      [
        "a",
        "ir"
      ],
      [
        "Ġ",
        "ice"
      ],
      [
        "one",
        "y"
      ],
      [
        "Ġbu",
        "y"
      ],
      [
        "Ġse",
        "ar"
      ],
      [
        "ĠG",
        "ra"
      ],
      [
        "Ġthan",
        "k"
      ],
      [
        "Ġ",
        "our"
      ],
      [
        "ie",
        "ld"
      ],
      [
        "Ġwind",
        "ow"
      ],
      [
        "Ġmagic",
        "al"
      ],
      [
        "H",
        "ell"
      ],
      [
        "W",
        "ow"
      ],
      [
        "Ġc",
        "ool"
      ],
      [
        "Ġbe",
        "e"
      ],
      [
        "Ġwh",
        "ite"
      ],
      [
        "ĠN",
        "ow"
      ],
      [
        "Ġba",
        "by"
      ],
      [
        "Ġfav",
        "or"
      ],
      [
        "Hell",
        "o"
      ],
      [
        "Ġh",
        "ill"
      ],
      [
        "Ġsh",
        "o"
      ],
      [
        "Ġv",
        "is"
      ],
      [
        "Ġste",
        "pped"
      ],
      [
        "Ġt",
        "ight"
      ],
      [
        "Ġless",
        "on"
      ],
      [
        "Ġfavor",
        "ite"
      ],
      [
        "m",
        "ed"
      ],
      [
        "Ġc",
        "ake"
      ],
      [
        "Ġm",
        "ar"
      ],
      [
        "Ġbu",
        "ild"
      ],
      [
        "S",
        "am"
      ],
      [
        "p",
        "h"
      ],
      [
        "Ġan",
        "other"
      ],
      [
        "Ġsome",
        "one"
      ],
      [
        "Ġstay",
        "ed"
      ],
      [
        "F",
        "rom"
      ],
      [
        "Ġd",
        "uck"
      ],
      [
        "Ġsw",
        "ing"
      ],
      [
        "as",
        "h"
      ],
      [
        "Ġfly",
        "ing"
      ],
      [
        "Ġdin",
        "ner"
      ],
      [
        "s",
        "ic"
      ],
      [
        "z",
        "e"
      ],
      [
        "Ġwas",
        "n"
      ],
      [
        "en",
        "ny"
      ],
      [
        "Ġb",
        "ag"
      ],
      [
        "Ġdo",
        "es"
      ],
      [
        "Ġmu",
        "sic"
      ],
      [
        "m",
        "e"
      ],
      [
        "am",
        "p"
      ],
      [
        "Ġevery",
        "thing"
      ],
      [
        "Ġunderst",
        "and"
      ],
      [
        "Ġre",
        "ad"
      ],
      [
        "Ġsp",
        "ark"
      ],
      [
        "Ġel",
        "se"
      ],
      [
        "m",
        "b"
      ],
      [
        "Ġh",
        "un"
      ],
      [
        "Ġsp",
        "l"
      ],
      [
        "Th",
        "is"
      ],
      [
        "Ġamaz",
        "ed"
      ],
      [
        "Ġlo",
        "st"
      ],
      [
        "Ġm",
        "at"
      ],
      [
        "Ġm",
        "et"
      ],
      [
        "ce",
        "ss"
      ],
      [
        "Ġs",
        "ong"
      ],
      [
        "Ġca",
        "nd"
      ],
      [
        "ĠTom",
        "my"
      ],
      [
        "Ġclo",
        "se"
      ],
      [
        "vent",
        "ually"
      ],
      [
        "Ġfar",
        "mer"
      ],
      [
        "itt",
        "en"
      ],
      [
        "ĠC",
        "an"
      ],
      [
        "l",
        "ice"
      ],
      [
        "o",
        "om"
      ],
      [
        "s",
        "et"
      ],
      [
        "Ġbe",
        "l"
      ],
      [
        "Ġexpl",
        "oring"
      ],
      [
        "Ġta",
        "ble"
      ],
      [
        "Ġslow",
        "ly"
      ],
      [
        "A",
        "nna"
      ],
      [
        "Ġbe",
        "ach"
      ],
      [
        "Ġlaug",
        "h"
      ],
      [
        "it",
        "ing"
      ],
      [
        "i",
        "re"
      ],
      [
        "Ġb",
        "re"
      ],
      [
        "am",
        "es"
      ],
      [
        "Ġmo",
        "st"
      ],
      [
        "Ġball",
        "oon"
      ],
      [
        "Ġforg",
        "ot"
      ],
      [
        "Ġjo",
        "b"
      ],
      [
        "ct",
        "or"
      ],
      [
        "Ġp",
        "et"
      ],
      [
        "Ġbig",
        "ger"
      ],
      [
        "ĠA",
        "ll"
      ],
      [
        "Ġtur",
        "n"
      ],
      [
        "Ġpain",
        "t"
      ],
      [
        "Ġw",
        "ished"
      ],
      [
        "ow",
        "er"
      ],
      [
        "Ġcl",
        "oud"
      ],
      [
        "r",
        "ow"
      ],
      [
        "Ġl",
        "ake"
      ],
      [
        "Ġhe",
        "ar"
      ],
      [
        "Ġd",
        "ir"
      ],
      [
        "Ġbe",
        "lie"
      ],
      [
        "bb",
        "y"
      ],
      [
        "m",
        "ent"
      ],
      [
        "in",
        "s"
      ],
      [
        "Ġc",
        "ount"
      ],
      [
        "Ġm",
        "ight"
      ],
      [
        "s",
        "w"
      ],
      [
        "uff",
        "y"
      ],
      [
        "e",
        "ared"
      ],
      [
        "g",
        "le"
      ],
      [
        "Ġf",
        "ield"
      ],
      [
        "Ġg",
        "u"
      ],
      [
        "Ġbro",
        "ken"
      ],
      [
        "Ġf",
        "ur"
      ],
      [
        "an",
        "ce"
      ],
      [
        "Ġan",
        "sw"
      ],
      [
        "Ġfast",
        "er"
      ],
      [
        "b",
        "r"
      ],
      [
        "Ġs",
        "u"
      ],
      [
        "Ġw",
        "on"
      ],
      [
        "Ġwor",
        "d"
      ],
      [
        "Ġmu",
        "st"
      ],
      [
        "Ġpo",
        "in"
      ],
      [
        "Ġr",
        "ide"
      ],
      [
        "Ġj",
        "u"
      ],
      [
        "Ġwa",
        "ited"
      ],
      [
        "ĠBen",
        "ny"
      ],
      [
        "Ġac",
        "ross"
      ],
      [
        "Ġwa",
        "ll"
      ],
      [
        "Ġc",
        "e"
      ],
      [
        "an",
        "c"
      ],
      [
        "Ġar",
        "m"
      ],
      [
        "ĠA",
        "my"
      ],
      [
        "Ġcar",
        "s"
      ],
      [
        "Ġho",
        "ld"
      ],
      [
        "Ġjo",
        "in"
      ],
      [
        "Ġtur",
        "ned"
      ],
      [
        "Ġp",
        "lease"
      ],
      [
        "il",
        "ing"
      ],
      [
        "ĠW",
        "hat"
      ],
      [
        "ĠB",
        "illy"
      ],
      [
        "a",
        "st"
      ],
      [
        "Ġb",
        "ar"
      ],
      [
        "le",
        "ph"
      ],
      [
        "o",
        "s"
      ],
      [
        "z",
        "z"
      ],
      [
        "Ġs",
        "ide"
      ],
      [
        "en",
        "ce"
      ],
      [
        "Ġne",
        "igh"
      ],
      [
        "Ġbl",
        "ack"
      ],
      [
        "Ġtow",
        "ards"
      ],
      [
        "Ġneigh",
        "b"
      ],
      [
        "m",
        "ing"
      ],
      [
        "Ġs",
        "uch"
      ],
      [
        "Ġw",
        "he"
      ],
      [
        "Ġh",
        "or"
      ],
      [
        "Ġg",
        "i"
      ],
      [
        "ke",
        "y"
      ],
      [
        "Ġsh",
        "ared"
      ],
      [
        "Ġadventure",
        "s"
      ],
      [
        "Ġblock",
        "s"
      ],
      [
        "O",
        "h"
      ],
      [
        "ou",
        "p"
      ],
      [
        "Ġc",
        "ried"
      ],
      [
        "Ġp",
        "ro"
      ],
      [
        "Ġlong",
        "er"
      ],
      [
        "Ġlist",
        "ened"
      ],
      [
        "Ġprom",
        "ised"
      ],
      [
        "Ġs",
        "illy"
      ],
      [
        "Ġca",
        "st"
      ],
      [
        "Ġal",
        "one"
      ],
      [
        "Ġsec",
        "ret"
      ],
      [
        "a",
        "pp"
      ],
      [
        "Ġh",
        "at"
      ],
      [
        "Ġst",
        "u"
      ],
      [
        "ĠL",
        "ila"
      ],
      [
        "Ġsomet",
        "imes"
      ],
      [
        "Ġcu",
        "p"
      ],
      [
        "Ġche",
        "ered"
      ],
      [
        "Ġdad",
        "dy"
      ],
      [
        "Ġrememb",
        "er"
      ],
      [
        "ĠDad",
        "dy"
      ],
      [
        "ĠTh",
        "is"
      ],
      [
        "W",
        "hy"
      ],
      [
        "g",
        "g"
      ],
      [
        "Ġs",
        "uddenly"
      ],
      [
        "Ġp",
        "ink"
      ],
      [
        "ve",
        "s"
      ],
      [
        "Ġwor",
        "ried"
      ],
      [
        "Ġcla",
        "pped"
      ],
      [
        "Ġvis",
        "it"
      ],
      [
        "F",
        "inally"
      ],
      [
        "Ġh",
        "ot"
      ],
      [
        "Ġhapp",
        "en"
      ],
      [
        "Ġor",
        "ange"
      ],
      [
        "Ġow",
        "l"
      ],
      [
        "av",
        "y"
      ],
      [
        "op",
        "e"
      ],
      [
        "Ġother",
        "s"
      ],
      [
        "Ġdis",
        "app"
      ],
      [
        "Ġclimb",
        "ed"
      ],
      [
        "Ġbelie",
        "ve"
      ],
      [
        "e",
        "e"
      ],
      [
        "Ġsc",
        "ary"
      ],
      [
        "ĠD",
        "o"
      ],
      [
        "ne",
        "y"
      ],
      [
        "ot",
        "t"
      ],
      [
        "Ġta",
        "il"
      ],
      [
        "Ġflo",
        "or"
      ],
      [
        "f",
        "ort"
      ],
      [
        "Ġat",
        "t"
      ],
      [
        "Ġsee",
        "med"
      ],
      [
        "Ġbook",
        "s"
      ],
      [
        "i",
        "et"
      ],
      [
        "i",
        "pped"
      ],
      [
        "Ġsm",
        "o"
      ],
      [
        "Ġre",
        "lie"
      ],
      [
        "ra",
        "ct"
      ],
      [
        "Ġlo",
        "ne"
      ],
      [
        "Ġtal",
        "k"
      ],
      [
        "Ġhun",
        "gry"
      ],
      [
        "Ġh",
        "ide"
      ],
      [
        "Ġr",
        "iver"
      ],
      [
        "Ġpl",
        "ant"
      ],
      [
        "and",
        "y"
      ],
      [
        "Ġcol",
        "our"
      ],
      [
        "Ġtre",
        "asure"
      ],
      [
        "Ġw",
        "et"
      ],
      [
        "Ġc",
        "or"
      ],
      [
        "ain",
        "ed"
      ],
      [
        "as",
        "ed"
      ],
      [
        "Ġdan",
        "ger"
      ],
      [
        "Ġbre",
        "ak"
      ],
      [
        "L",
        "ucy"
      ],
      [
        "Ġsa",
        "me"
      ],
      [
        "Ġsh",
        "ap"
      ],
      [
        "Ġj",
        "e"
      ],
      [
        "Ġal",
        "ong"
      ],
      [
        "us",
        "h"
      ],
      [
        "Ġdra",
        "gon"
      ],
      [
        "Ġlone",
        "ly"
      ],
      [
        "d",
        "er"
      ],
      [
        "e",
        "k"
      ],
      [
        "ed",
        "dy"
      ],
      [
        "Ġyou",
        "ng"
      ],
      [
        "ch",
        "ool"
      ],
      [
        "ĠF",
        "l"
      ],
      [
        "Ġcolor",
        "s"
      ],
      [
        "Ġh",
        "ig"
      ],
      [
        "Ġhe",
        "avy"
      ],
      [
        "le",
        "ss"
      ],
      [
        "or",
        "m"
      ],
      [
        "on",
        "s"
      ],
      [
        "fu",
        "sed"
      ],
      [
        "Ġhelp",
        "ing"
      ],
      [
        "Ġgr",
        "ow"
      ],
      [
        "Ġmor",
        "al"
      ],
      [
        "itt",
        "y"
      ],
      [
        "Ġse",
        "es"
      ],
      [
        "Ġpu",
        "lled"
      ],
      [
        "H",
        "i"
      ],
      [
        "Ġ",
        "3"
      ],
      [
        "Ġpo",
        "cket"
      ],
      [
        "Ġnear",
        "by"
      ],
      [
        "Ġf",
        "ight"
      ],
      [
        "Ġst",
        "one"
      ],
      [
        "Ġcl",
        "ot"
      ],
      [
        "Ġpicture",
        "s"
      ],
      [
        "w",
        "eet"
      ],
      [
        "Ġo",
        "b"
      ],
      [
        "ri",
        "es"
      ],
      [
        "Ġsh",
        "op"
      ],
      [
        "ĠM",
        "ary"
      ],
      [
        "Ġcast",
        "le"
      ],
      [
        "Ġrelie",
        "ved"
      ],
      [
        "Ġclot",
        "hes"
      ],
      [
        "Ġt",
        "reat"
      ],
      [
        "Ġs",
        "chool"
      ],
      [
        "Ġb",
        "ott"
      ],
      [
        "Ġsa",
        "il"
      ],
      [
        "Ġli",
        "ving"
      ],
      [
        "Ġte",
        "ac"
      ],
      [
        "A",
        "nd"
      ],
      [
        "el",
        "c"
      ],
      [
        "el",
        "y"
      ],
      [
        "um",
        "b"
      ],
      [
        "Ġch",
        "o"
      ],
      [
        "Ġqu",
        "iet"
      ],
      [
        "Ġcolor",
        "ful"
      ],
      [
        "Ġgent",
        "le"
      ],
      [
        "i",
        "x"
      ],
      [
        "Ġt",
        "iny"
      ],
      [
        "Ġe",
        "leph"
      ],
      [
        "uck",
        "y"
      ],
      [
        "Ġpa",
        "per"
      ],
      [
        "Ġeleph",
        "ant"
      ],
      [
        "t",
        "hy"
      ],
      [
        "Ġm",
        "oney"
      ],
      [
        "Ġn",
        "ap"
      ],
      [
        "Ġdo",
        "ctor"
      ],
      [
        "Ġj",
        "our"
      ],
      [
        "Ġbu",
        "cket"
      ],
      [
        "ion",
        "s"
      ],
      [
        "Ġtow",
        "n"
      ],
      [
        "Ġpiece",
        "s"
      ],
      [
        "Ġp",
        "ers"
      ],
      [
        "Ġevery",
        "where"
      ],
      [
        "ĠEm",
        "ma"
      ],
      [
        "Ġhig",
        "her"
      ],
      [
        "Ġs",
        "it"
      ],
      [
        "Ġp",
        "ig"
      ],
      [
        "Ġst",
        "re"
      ],
      [
        "Ġwith",
        "out"
      ],
      [
        "Ġca",
        "ve"
      ],
      [
        "Ġclo",
        "sed"
      ],
      [
        "Ġb",
        "ike"
      ],
      [
        "is",
        "ter"
      ],
      [
        "ĠJ",
        "immy"
      ],
      [
        "Ġca",
        "ught"
      ],
      [
        "Ġsn",
        "ow"
      ],
      [
        "Ġcook",
        "ies"
      ],
      [
        "l",
        "f"
      ],
      [
        "re",
        "w"
      ],
      [
        "Ġst",
        "and"
      ],
      [
        "Ġla",
        "nd"
      ],
      [
        "Ġtra",
        "in"
      ],
      [
        "Ġmon",
        "ster"
      ],
      [
        "B",
        "ob"
      ],
      [
        "ne",
        "ver"
      ],
      [
        "or",
        "ed"
      ],
      [
        "Ġr",
        "ace"
      ],
      [
        "Ġse",
        "a"
      ],
      [
        "Ġf",
        "all"
      ],
      [
        "Ġd",
        "es"
      ],
      [
        "Ġre",
        "l"
      ],
      [
        "Ġlike",
        "s"
      ],
      [
        "Ġeat",
        "ing"
      ],
      [
        "Ġf",
        "ree"
      ],
      [
        "Ġp",
        "urp"
      ],
      [
        "Ġexc",
        "iting"
      ],
      [
        "Ġbu",
        "s"
      ],
      [
        "Ġbl",
        "ank"
      ],
      [
        "Ġmo",
        "ved"
      ],
      [
        "Ġdro",
        "ve"
      ],
      [
        "Ġbat",
        "h"
      ],
      [
        "M",
        "ax"
      ],
      [
        "u",
        "it"
      ],
      [
        "Ġto",
        "day"
      ],
      [
        "Ġhe",
        "art"
      ],
      [
        "Ġsn",
        "ack"
      ],
      [
        "M",
        "aybe"
      ],
      [
        "is",
        "es"
      ],
      [
        "Ġpl",
        "an"
      ],
      [
        "Ġwe",
        "ar"
      ],
      [
        "Ġre",
        "ach"
      ],
      [
        "Ġk",
        "ite"
      ],
      [
        "ĠSo",
        "on"
      ],
      [
        "ate",
        "ful"
      ],
      [
        "Ġfair",
        "y"
      ],
      [
        "Ġword",
        "s"
      ],
      [
        "Ġteac",
        "her"
      ],
      [
        "Ġpurp",
        "le"
      ],
      [
        "M",
        "olly"
      ],
      [
        "ou",
        "n"
      ],
      [
        "Ġp",
        "ack"
      ],
      [
        "ĠM",
        "ama"
      ],
      [
        "Ġgra",
        "ndma"
      ],
      [
        "Ġblank",
        "et"
      ],
      [
        "Ġs",
        "ister"
      ],
      [
        "Ġw",
        "elc"
      ],
      [
        "Ġh",
        "ar"
      ],
      [
        "Ġc",
        "ream"
      ],
      [
        "Ġm",
        "in"
      ],
      [
        "Ġn",
        "aught"
      ],
      [
        "Ġgr",
        "ateful"
      ],
      [
        "Ġsmile",
        "s"
      ],
      [
        "D",
        "o"
      ],
      [
        "p",
        "e"
      ],
      [
        "y",
        "ard"
      ],
      [
        "Ġmake",
        "s"
      ],
      [
        "Åĵ",
        "I"
      ],
      [
        "Ġta",
        "king"
      ],
      [
        "aught",
        "er"
      ],
      [
        "w",
        "ard"
      ],
      [
        "Ġhe",
        "al"
      ],
      [
        "le",
        "br"
      ],
      [
        "Ġth",
        "ough"
      ],
      [
        "ĠM",
        "r"
      ],
      [
        "Ġdis",
        "co"
      ],
      [
        "Ġpart",
        "y"
      ],
      [
        "Ġcand",
        "y"
      ],
      [
        "Ġce",
        "lebr"
      ],
      [
        "Ġdanger",
        "ous"
      ],
      [
        "b",
        "ble"
      ],
      [
        "in",
        "ing"
      ],
      [
        "ver",
        "ed"
      ],
      [
        "Ġback",
        "yard"
      ],
      [
        "Ġwo",
        "ke"
      ],
      [
        "un",
        "ch"
      ],
      [
        "Ġre",
        "t"
      ],
      [
        "Ġw",
        "ise"
      ],
      [
        "Ġm",
        "ix"
      ],
      [
        "Ġp",
        "ower"
      ],
      [
        "Ġfr",
        "uit"
      ],
      [
        "ĠIn",
        "side"
      ],
      [
        "Ġjour",
        "ney"
      ],
      [
        "Ġnaught",
        "y"
      ],
      [
        "Ġc",
        "our"
      ],
      [
        "et",
        "e"
      ],
      [
        "Ġco",
        "ll"
      ],
      [
        "Ġlaug",
        "hing"
      ],
      [
        "Ġret",
        "ur"
      ],
      [
        "a",
        "il"
      ],
      [
        "p",
        "a"
      ],
      [
        "r",
        "ound"
      ],
      [
        "Ġb",
        "ite"
      ],
      [
        "Ġb",
        "ask"
      ],
      [
        "Ġst",
        "uck"
      ],
      [
        "Ġup",
        "set"
      ],
      [
        "Ġli",
        "fe"
      ],
      [
        "Ġdir",
        "ty"
      ],
      [
        "Ġbask",
        "et"
      ],
      [
        "Ġg",
        "ather"
      ],
      [
        "Ġdan",
        "ce"
      ],
      [
        "Ġb",
        "oun"
      ],
      [
        "Ġp",
        "en"
      ],
      [
        "pp",
        "er"
      ],
      [
        "Ġsm",
        "art"
      ],
      [
        "Ġwould",
        "n"
      ],
      [
        "i",
        "ble"
      ],
      [
        "Ġd",
        "ist"
      ],
      [
        "ig",
        "g"
      ],
      [
        "ad",
        "ow"
      ],
      [
        "Ġnot",
        "hing"
      ],
      [
        "Ġmy",
        "ster"
      ],
      [
        "Ġdel",
        "ight"
      ],
      [
        "Ġcry",
        "ing"
      ],
      [
        "c",
        "ing"
      ],
      [
        "h",
        "o"
      ],
      [
        "Ġday",
        "s"
      ],
      [
        "Ġsm",
        "iling"
      ],
      [
        "Ġapp",
        "le"
      ],
      [
        "Ġju",
        "ice"
      ],
      [
        "Ġcour",
        "se"
      ],
      [
        "d",
        "e"
      ],
      [
        "i",
        "er"
      ],
      [
        "Ġc",
        "ou"
      ],
      [
        "Ġp",
        "ract"
      ],
      [
        "ir",
        "t"
      ],
      [
        "Ġsw",
        "am"
      ],
      [
        "Ġcreat",
        "ure"
      ],
      [
        "Ġsho",
        "es"
      ],
      [
        "u",
        "ched"
      ],
      [
        "Ġto",
        "uched"
      ],
      [
        "it",
        "ch"
      ],
      [
        "Ġin",
        "st"
      ],
      [
        "Ġe",
        "ventually"
      ],
      [
        "Ġle",
        "a"
      ],
      [
        "ep",
        "end"
      ],
      [
        "Ġv",
        "ill"
      ],
      [
        "Ġpre",
        "s"
      ],
      [
        "Ġd",
        "aughter"
      ],
      [
        "Ġin",
        "c"
      ],
      [
        "Ġwe",
        "ll"
      ],
      [
        "Ġsp",
        "r"
      ],
      [
        "Ġsun",
        "ny"
      ],
      [
        "Ġad",
        "m"
      ],
      [
        "ount",
        "ain"
      ],
      [
        "l",
        "a"
      ],
      [
        "Ġp",
        "ot"
      ],
      [
        "ĠW",
        "ith"
      ],
      [
        "Ġbu",
        "sh"
      ],
      [
        "Ġcr",
        "ay"
      ],
      [
        "O",
        "K"
      ],
      [
        "Ġth",
        "in"
      ],
      [
        "itt",
        "ing"
      ],
      [
        "ĠT",
        "weet"
      ],
      [
        "Ġim",
        "ag"
      ],
      [
        "Ġmin",
        "ut"
      ],
      [
        "E",
        "very"
      ],
      [
        "Ġs",
        "ign"
      ],
      [
        "Ġw",
        "ings"
      ],
      [
        "Ġo",
        "nt"
      ],
      [
        "Ġbu",
        "sy"
      ],
      [
        "our",
        "s"
      ],
      [
        "Ġsear",
        "ch"
      ],
      [
        "Ġont",
        "o"
      ],
      [
        "Ġg",
        "if"
      ],
      [
        "ne",
        "ss"
      ],
      [
        "Ġso",
        "l"
      ],
      [
        "Ġpl",
        "ane"
      ],
      [
        "Ġsc",
        "ream"
      ],
      [
        "Ġbr",
        "ing"
      ],
      [
        "Ġspot",
        "ted"
      ],
      [
        "ĠJ",
        "ake"
      ],
      [
        "Ġhug",
        "e"
      ],
      [
        "Ġpe",
        "ace"
      ],
      [
        "Ġpat",
        "h"
      ],
      [
        "Ġbel",
        "ong"
      ],
      [
        "r",
        "ot"
      ],
      [
        "nd",
        "pa"
      ],
      [
        "Ġm",
        "ark"
      ],
      [
        "Ġg",
        "ames"
      ],
      [
        "Ġwh",
        "ist"
      ],
      [
        "Ġtr",
        "ou"
      ],
      [
        "Ġtast",
        "y"
      ],
      [
        "Ġsing",
        "ing"
      ],
      [
        "Ġpus",
        "hed"
      ],
      [
        "ĠFl",
        "uffy"
      ],
      [
        "or",
        "row"
      ],
      [
        "Ġwant",
        "s"
      ],
      [
        "Ġsp",
        "ent"
      ],
      [
        "Ġexpl",
        "ained"
      ],
      [
        "Ġpu",
        "ll"
      ],
      [
        "Ġdoll",
        "s"
      ],
      [
        "Ġsmo",
        "oth"
      ],
      [
        "Ġpres",
        "ent"
      ],
      [
        "c",
        "le"
      ],
      [
        "Ġc",
        "ir"
      ],
      [
        "Ġsa",
        "ck"
      ],
      [
        "Ġe",
        "ar"
      ],
      [
        "Ġsh",
        "ining"
      ],
      [
        "Ġpa",
        "st"
      ],
      [
        "Ġwatch",
        "ing"
      ],
      [
        "Ġprin",
        "cess"
      ],
      [
        "Ġswim",
        "ming"
      ],
      [
        "p",
        "ed"
      ],
      [
        "re",
        "st"
      ],
      [
        "Ġst",
        "ars"
      ],
      [
        "Ġk",
        "itten"
      ],
      [
        "Ġme",
        "et"
      ],
      [
        "Ġsun",
        "sh"
      ],
      [
        "Ġfore",
        "ver"
      ],
      [
        "Tom",
        "my"
      ],
      [
        "Ġcra",
        "w"
      ],
      [
        "Ġsunsh",
        "ine"
      ],
      [
        "e",
        "rest"
      ],
      [
        "f",
        "ish"
      ],
      [
        "Ġs",
        "uc"
      ],
      [
        "Ġs",
        "itting"
      ],
      [
        "Ġb",
        "reat"
      ],
      [
        "Ġf",
        "ig"
      ],
      [
        "Ġsa",
        "ng"
      ],
      [
        "out",
        "h"
      ],
      [
        "Ġpo",
        "l"
      ],
      [
        "Ġint",
        "erest"
      ],
      [
        "Ġstor",
        "ies"
      ],
      [
        "Ġbro",
        "ke"
      ],
      [
        "O",
        "kay"
      ],
      [
        "e",
        "ad"
      ],
      [
        "o",
        "nd"
      ],
      [
        "Ġf",
        "it"
      ],
      [
        "on",
        "t"
      ],
      [
        "Ġfr",
        "ont"
      ],
      [
        "Ġrock",
        "s"
      ],
      [
        "Ġbow",
        "l"
      ],
      [
        "Ġcloud",
        "s"
      ],
      [
        "Ġneighb",
        "or"
      ],
      [
        "Ġwelc",
        "ome"
      ],
      [
        "S",
        "ure"
      ],
      [
        "Ġd",
        "ry"
      ],
      [
        "ck",
        "ed"
      ],
      [
        "ĠJ",
        "enny"
      ],
      [
        "Ġco",
        "zy"
      ],
      [
        "ĠP",
        "ete"
      ],
      [
        "Ġdan",
        "ced"
      ],
      [
        "Ġshap",
        "es"
      ],
      [
        "Ġstre",
        "et"
      ],
      [
        "b",
        "ow"
      ],
      [
        "Ġw",
        "in"
      ],
      [
        "an",
        "g"
      ],
      [
        "Ġy",
        "ard"
      ],
      [
        "Ġli",
        "ft"
      ],
      [
        "Ġwh",
        "ich"
      ],
      [
        "Ġro",
        "lled"
      ],
      [
        "Ġow",
        "ner"
      ],
      [
        "Ġapp",
        "eared"
      ],
      [
        "Ġtast",
        "ed"
      ],
      [
        "Ġmon",
        "key"
      ],
      [
        "'",
        "d"
      ],
      [
        "a",
        "ss"
      ],
      [
        "Ġ",
        "'"
      ],
      [
        "Ġl",
        "ate"
      ],
      [
        "Ġl",
        "unch"
      ],
      [
        "Ġbr",
        "own"
      ],
      [
        "iz",
        "e"
      ],
      [
        "Ġplace",
        "s"
      ],
      [
        "ock",
        "ed"
      ],
      [
        "Ġrain",
        "bow"
      ],
      [
        "Ġhor",
        "se"
      ],
      [
        "M",
        "um"
      ],
      [
        "o",
        "g"
      ],
      [
        "Ġs",
        "ort"
      ],
      [
        "al",
        "m"
      ],
      [
        "Ġwho",
        "le"
      ],
      [
        "Ġwonder",
        "ed"
      ],
      [
        "Ġac",
        "c"
      ],
      [
        "Ġdri",
        "ver"
      ],
      [
        "Ġarm",
        "s"
      ],
      [
        "J",
        "ust"
      ],
      [
        "Ġs",
        "ur"
      ],
      [
        "Ġm",
        "outh"
      ],
      [
        "Ġe",
        "as"
      ],
      [
        "Ġe",
        "gg"
      ],
      [
        "Ġcar",
        "ry"
      ],
      [
        "t",
        "en"
      ],
      [
        "Ġl",
        "ar"
      ],
      [
        "Ġr",
        "ound"
      ],
      [
        "Ġfor",
        "get"
      ],
      [
        "Ġsh",
        "ook"
      ],
      [
        "Ġno",
        "ises"
      ],
      [
        "Ġke",
        "y"
      ],
      [
        "Ġask",
        "s"
      ],
      [
        "ĠEm",
        "ily"
      ],
      [
        "Ġdr",
        "ink"
      ],
      [
        "Ġdro",
        "pped"
      ],
      [
        "Ġcor",
        "ner"
      ],
      [
        "Ġvill",
        "age"
      ],
      [
        "Ġa",
        "ct"
      ],
      [
        "Ġs",
        "ug"
      ],
      [
        "Ġw",
        "ish"
      ],
      [
        "re",
        "ad"
      ],
      [
        "Ġm",
        "ine"
      ],
      [
        "Ġre",
        "sp"
      ],
      [
        "Ġqu",
        "est"
      ],
      [
        "iz",
        "z"
      ],
      [
        "Ġsear",
        "ched"
      ],
      [
        "c",
        "er"
      ],
      [
        "Ġf",
        "ence"
      ],
      [
        "en",
        "s"
      ],
      [
        "Ġe",
        "ag"
      ],
      [
        "Ġsp",
        "icy"
      ],
      [
        "Ġcar",
        "rot"
      ],
      [
        "Ġfo",
        "ot"
      ],
      [
        "Ġche",
        "st"
      ],
      [
        "th",
        "day"
      ],
      [
        "fort",
        "able"
      ],
      [
        "Ġb",
        "ought"
      ],
      [
        "id",
        "er"
      ],
      [
        "Ġth",
        "rew"
      ],
      [
        "Ġne",
        "t"
      ],
      [
        "Ġsp",
        "in"
      ],
      [
        "Ġlove",
        "ly"
      ],
      [
        "Ġcon",
        "fused"
      ],
      [
        "Ġcoll",
        "ect"
      ],
      [
        "Ġinterest",
        "ing"
      ],
      [
        "Ġlar",
        "ge"
      ],
      [
        "J",
        "ane"
      ],
      [
        "g",
        "round"
      ],
      [
        "o",
        "ve"
      ],
      [
        "ll",
        "o"
      ],
      [
        "Ġle",
        "m"
      ],
      [
        "ble",
        "m"
      ],
      [
        "ge",
        "st"
      ],
      [
        "Ġmum",
        "my"
      ],
      [
        "a",
        "ur"
      ],
      [
        "m",
        "an"
      ],
      [
        "Ġ",
        "ent"
      ],
      [
        "Ġw",
        "ild"
      ],
      [
        "le",
        "t"
      ],
      [
        "Ġe",
        "mb"
      ],
      [
        "Ġsh",
        "y"
      ],
      [
        "Ġj",
        "un"
      ],
      [
        "Ġsp",
        "oon"
      ],
      [
        "Ġch",
        "air"
      ],
      [
        "Ġpa",
        "ss"
      ],
      [
        "Ġjo",
        "ke"
      ],
      [
        "ĠC",
        "h"
      ],
      [
        "Ġfar",
        "m"
      ],
      [
        "Jo",
        "e"
      ],
      [
        "Ġma",
        "il"
      ],
      [
        "ĠTo",
        "gether"
      ],
      [
        "bo",
        "ard"
      ],
      [
        "ĠGra",
        "ndma"
      ],
      [
        "Ġpro",
        "blem"
      ],
      [
        "g",
        "ged"
      ],
      [
        "o",
        "bby"
      ],
      [
        "Ġb",
        "en"
      ],
      [
        "it",
        "y"
      ],
      [
        "Ġo",
        "ce"
      ],
      [
        "ar",
        "ra"
      ],
      [
        "Ġle",
        "g"
      ],
      [
        "op",
        "h"
      ],
      [
        "ĠF",
        "inally"
      ],
      [
        "He",
        "y"
      ],
      [
        "Ġhop",
        "ed"
      ],
      [
        "Ġemb",
        "arra"
      ],
      [
        "Ġoce",
        "an"
      ],
      [
        "M",
        "ama"
      ],
      [
        "c",
        "or"
      ],
      [
        "d",
        "le"
      ],
      [
        "Ġ",
        "ign"
      ],
      [
        "Ġa",
        "p"
      ],
      [
        "Ġm",
        "iss"
      ],
      [
        "Ġgr",
        "oup"
      ],
      [
        "Ġbug",
        "s"
      ],
      [
        "sc",
        "ap"
      ],
      [
        "Ġansw",
        "er"
      ],
      [
        "anc",
        "y"
      ],
      [
        "Ġbott",
        "le"
      ],
      [
        "d",
        "en"
      ],
      [
        "Ġa",
        "f"
      ],
      [
        "Ġb",
        "lew"
      ],
      [
        "id",
        "ge"
      ],
      [
        "an",
        "ut"
      ],
      [
        "an",
        "ch"
      ],
      [
        "Ġk",
        "ick"
      ],
      [
        "Ġbut",
        "t"
      ],
      [
        "Ġme",
        "adow"
      ],
      [
        "Ġbr",
        "anch"
      ],
      [
        "Ġtw",
        "ins"
      ],
      [
        "Ġpat",
        "ient"
      ],
      [
        "Ġcut",
        "e"
      ],
      [
        "J",
        "immy"
      ],
      [
        "Ġt",
        "eddy"
      ],
      [
        "Ġl",
        "etter"
      ],
      [
        "Ġp",
        "ile"
      ],
      [
        "Ġp",
        "udd"
      ],
      [
        "Ġbo",
        "ne"
      ],
      [
        "Ġsp",
        "o"
      ],
      [
        "Ġbir",
        "thday"
      ],
      [
        "Ġbed",
        "room"
      ],
      [
        "Ġtal",
        "king"
      ],
      [
        "ul",
        "t"
      ],
      [
        "Ġpoin",
        "ted"
      ],
      [
        "O",
        "f"
      ],
      [
        "er",
        "ly"
      ],
      [
        "le",
        "x"
      ],
      [
        "Ġwe",
        "aring"
      ],
      [
        "Ġsh",
        "r"
      ],
      [
        "Ġcar",
        "ried"
      ],
      [
        "us",
        "ie"
      ],
      [
        "Ġfo",
        "ld"
      ],
      [
        "Ġhid",
        "den"
      ],
      [
        "Ġspl",
        "as"
      ],
      [
        "e",
        "en"
      ],
      [
        "g",
        "ly"
      ],
      [
        "o",
        "se"
      ],
      [
        "Ġb",
        "ur"
      ],
      [
        "Ġh",
        "ours"
      ],
      [
        "id",
        "ent"
      ],
      [
        "Ġu",
        "gly"
      ],
      [
        "Ġfor",
        "ward"
      ],
      [
        "ug",
        "g"
      ],
      [
        "Ġexc",
        "ite"
      ],
      [
        "Ġhold",
        "ing"
      ],
      [
        "Ġmyster",
        "ious"
      ],
      [
        "Ġfig",
        "ure"
      ],
      [
        "N",
        "ow"
      ],
      [
        "o",
        "ld"
      ],
      [
        "p",
        "s"
      ],
      [
        "Ġt",
        "un"
      ],
      [
        "Ġm",
        "is"
      ],
      [
        "Ġst",
        "ood"
      ],
      [
        "ĠM",
        "aybe"
      ],
      [
        "Ġsp",
        "e"
      ],
      [
        "Ġro",
        "ll"
      ],
      [
        "ĠEvery",
        "where"
      ],
      [
        "Ġwr",
        "ite"
      ],
      [
        "eter",
        "m"
      ],
      [
        "Ġheal",
        "thy"
      ],
      [
        "Ġinst",
        "ead"
      ],
      [
        "Ġjun",
        "gle"
      ],
      [
        "Ġexcite",
        "ment"
      ],
      [
        "C",
        "ome"
      ],
      [
        "I",
        "n"
      ],
      [
        "n",
        "ic"
      ],
      [
        "Ġd",
        "eterm"
      ],
      [
        "Ġp",
        "ill"
      ],
      [
        "Ġp",
        "ool"
      ],
      [
        "ri",
        "ll"
      ],
      [
        "Ġhelp",
        "ful"
      ],
      [
        "Ġfe",
        "et"
      ],
      [
        "Ġpic",
        "nic"
      ],
      [
        "Ġz",
        "oom"
      ],
      [
        "Ġdri",
        "ve"
      ],
      [
        "Ġpers",
        "on"
      ],
      [
        "Ġembarra",
        "ssed"
      ],
      [
        "Ġl",
        "ucky"
      ],
      [
        "Ġm",
        "ot"
      ],
      [
        "ĠS",
        "t"
      ],
      [
        "am",
        "ed"
      ],
      [
        "Ġplay",
        "ground"
      ],
      [
        "Ġas",
        "leep"
      ],
      [
        "ĠM",
        "um"
      ],
      [
        "ĠJ",
        "en"
      ],
      [
        "Ġj",
        "ar"
      ],
      [
        "Ġbu",
        "bble"
      ],
      [
        "Ġor",
        "gan"
      ],
      [
        "Ġpu",
        "zz"
      ],
      [
        "Ġcle",
        "ver"
      ],
      [
        "Ġrem",
        "ind"
      ],
      [
        "Ġthink",
        "s"
      ],
      [
        "Ġretur",
        "ned"
      ],
      [
        "Ġgif",
        "t"
      ],
      [
        "G",
        "ood"
      ],
      [
        "Ġa",
        "nt"
      ],
      [
        "Ġl",
        "ay"
      ],
      [
        "Ġwas",
        "h"
      ],
      [
        "Ġp",
        "h"
      ],
      [
        "Ġr",
        "ope"
      ],
      [
        "Ġk",
        "iss"
      ],
      [
        "Ġan",
        "g"
      ],
      [
        "ra",
        "id"
      ],
      [
        "Ġsp",
        "ider"
      ],
      [
        "Ġte",
        "ach"
      ],
      [
        "Ġimp",
        "re"
      ],
      [
        "Ġmat",
        "ter"
      ],
      [
        "Ġstand",
        "ing"
      ],
      [
        "Ġlem",
        "on"
      ],
      [
        "M",
        "y"
      ],
      [
        "M",
        "ummy"
      ],
      [
        "i",
        "an"
      ],
      [
        "Ġs",
        "ne"
      ],
      [
        "Ġf",
        "ancy"
      ],
      [
        "Ġl",
        "it"
      ],
      [
        "Ġin",
        "v"
      ],
      [
        "ow",
        "ed"
      ],
      [
        "Ġsw",
        "ings"
      ],
      [
        "ĠC",
        "ome"
      ],
      [
        "Ġsound",
        "s"
      ],
      [
        "ĠK",
        "itty"
      ],
      [
        "Ġcolour",
        "ful"
      ],
      [
        "Ġaf",
        "raid"
      ],
      [
        "c",
        "ol"
      ],
      [
        "Ġhe",
        "llo"
      ],
      [
        "Ġe",
        "scap"
      ],
      [
        "?\"",
        "."
      ],
      [
        "ul",
        "ar"
      ],
      [
        "Ġturn",
        "s"
      ],
      [
        "Ġgather",
        "ed"
      ],
      [
        "Ġc",
        "ow"
      ],
      [
        "Ġd",
        "i"
      ],
      [
        "Ġm",
        "ad"
      ],
      [
        "Ġm",
        "ind"
      ],
      [
        "Ġsa",
        "iled"
      ],
      [
        "ig",
        "hed"
      ],
      [
        "Ġmu",
        "d"
      ],
      [
        "Ġla",
        "st"
      ],
      [
        "ĠF",
        "red"
      ],
      [
        "ĠSam",
        "my"
      ],
      [
        "Ġgre",
        "w"
      ],
      [
        "Ġtal",
        "ked"
      ],
      [
        "Ġsand",
        "w"
      ],
      [
        "Sara",
        "h"
      ],
      [
        "Ġbuild",
        "ing"
      ],
      [
        "L",
        "ater"
      ],
      [
        "T",
        "o"
      ],
      [
        "a",
        "king"
      ],
      [
        "Ġwa",
        "ve"
      ],
      [
        "Ġl",
        "ater"
      ],
      [
        "id",
        "dle"
      ],
      [
        "Ġst",
        "ir"
      ],
      [
        "Ġne",
        "st"
      ],
      [
        "ĠE",
        "ven"
      ],
      [
        "Ġla",
        "w"
      ],
      [
        "Ġpr",
        "ot"
      ],
      [
        "Ġthr",
        "ow"
      ],
      [
        "Ġhop",
        "e"
      ],
      [
        "Ġsmell",
        "ed"
      ],
      [
        "Ġwhe",
        "never"
      ],
      [
        "Ġang",
        "el"
      ],
      [
        "h",
        "ile"
      ],
      [
        "u",
        "al"
      ],
      [
        "Ġwa",
        "nder"
      ],
      [
        "er",
        "t"
      ],
      [
        "Ġm",
        "ist"
      ],
      [
        "Ġp",
        "ar"
      ],
      [
        "Ġst",
        "ep"
      ],
      [
        "Ġsh",
        "irt"
      ],
      [
        "ĠJ",
        "ust"
      ],
      [
        "Ġro",
        "b"
      ],
      [
        "Ġsee",
        "k"
      ],
      [
        "Ġfl",
        "ut"
      ],
      [
        "Ġspark",
        "ly"
      ],
      [
        "Ġfur",
        "ry"
      ],
      [
        "Ġminut",
        "es"
      ],
      [
        "Ġbreat",
        "h"
      ],
      [
        "Ġmot",
        "or"
      ],
      [
        "a",
        "le"
      ],
      [
        "Ġs",
        "er"
      ],
      [
        "Ġs",
        "our"
      ],
      [
        "Ġp",
        "le"
      ],
      [
        "Ġg",
        "igg"
      ],
      [
        "il",
        "k"
      ],
      [
        "ve",
        "l"
      ],
      [
        "Ġv",
        "al"
      ],
      [
        "Ġbec",
        "ome"
      ],
      [
        "Ġbl",
        "ow"
      ],
      [
        "Ġpe",
        "anut"
      ],
      [
        "Ġho",
        "pping"
      ],
      [
        "So",
        "on"
      ],
      [
        "Ġgent",
        "ly"
      ],
      [
        "Ġtight",
        "ly"
      ],
      [
        "Ġacc",
        "ident"
      ],
      [
        "Ġprot",
        "ect"
      ],
      [
        "Ġrob",
        "ot"
      ],
      [
        "Ġt",
        "ig"
      ],
      [
        "Ġs",
        "ick"
      ],
      [
        "Ġw",
        "ra"
      ],
      [
        "Ġb",
        "er"
      ],
      [
        "Ġf",
        "ing"
      ],
      [
        "Ġc",
        "alm"
      ],
      [
        "Ġm",
        "ilk"
      ],
      [
        "Ġex",
        "p"
      ],
      [
        "Ġex",
        "am"
      ],
      [
        "ĠE",
        "nd"
      ],
      [
        "Åĵ",
        "Let"
      ],
      [
        "Ġany",
        "one"
      ],
      [
        "Ġche",
        "er"
      ],
      [
        "ĠTweet",
        "y"
      ],
      [
        "Ġpeace",
        "ful"
      ],
      [
        "Ġdeterm",
        "ined"
      ],
      [
        "M",
        "ia"
      ],
      [
        "s",
        "ist"
      ],
      [
        "u",
        "nt"
      ],
      [
        "Ġs",
        "el"
      ],
      [
        "Ġm",
        "ed"
      ],
      [
        "Ġbe",
        "ll"
      ],
      [
        "Ġgo",
        "at"
      ],
      [
        "Ġgra",
        "b"
      ],
      [
        "Ġstor",
        "m"
      ],
      [
        "Ġwait",
        "ing"
      ],
      [
        "Ġyell",
        "ed"
      ],
      [
        "Ġsmell",
        "y"
      ],
      [
        "Ġtri",
        "p"
      ],
      [
        "h",
        "in"
      ],
      [
        "Ġw",
        "ip"
      ],
      [
        "ir",
        "d"
      ],
      [
        "Ġn",
        "ut"
      ],
      [
        "ce",
        "pt"
      ],
      [
        "oo",
        "se"
      ],
      [
        "Ġwe",
        "ek"
      ],
      [
        "Ġne",
        "ck"
      ],
      [
        "al",
        "ous"
      ],
      [
        "ur",
        "ry"
      ],
      [
        "Ġno",
        "se"
      ],
      [
        "get",
        "able"
      ],
      [
        "Ġmat",
        "ch"
      ],
      [
        "Ġansw",
        "ered"
      ],
      [
        "Ġje",
        "alous"
      ],
      [
        "epend",
        "able"
      ],
      [
        "Ġtrou",
        "ble"
      ],
      [
        "S",
        "t"
      ],
      [
        "b",
        "all"
      ],
      [
        "e",
        "y"
      ],
      [
        "Ġt",
        "ear"
      ],
      [
        "Ġw",
        "ide"
      ],
      [
        "Ġc",
        "oo"
      ],
      [
        "at",
        "ing"
      ],
      [
        "Ġst",
        "ar"
      ],
      [
        "ĠB",
        "e"
      ],
      [
        "Ġas",
        "h"
      ],
      [
        "Ġas",
        "king"
      ],
      [
        "Ġtow",
        "er"
      ],
      [
        "Ġve",
        "getable"
      ],
      [
        "Ġgi",
        "ant"
      ],
      [
        "Ġdisapp",
        "eared"
      ],
      [
        "Ġcou",
        "ch"
      ],
      [
        "Ġsuc",
        "cess"
      ],
      [
        "Ġpudd",
        "le"
      ],
      [
        "Ġh",
        "it"
      ],
      [
        "en",
        "er"
      ],
      [
        "et",
        "h"
      ],
      [
        "Ġse",
        "at"
      ],
      [
        "Ġco",
        "in"
      ],
      [
        "Ġmo",
        "on"
      ],
      [
        "Ġcom",
        "es"
      ],
      [
        "Ġjump",
        "ing"
      ],
      [
        "Ġfin",
        "ish"
      ],
      [
        "Ġtreat",
        "s"
      ],
      [
        "Ġmist",
        "ake"
      ],
      [
        "A",
        "my"
      ],
      [
        "W",
        "here"
      ],
      [
        "Ġ",
        "On"
      ],
      [
        "Ġto",
        "m"
      ],
      [
        "Ġm",
        "ountain"
      ],
      [
        "Ġm",
        "iddle"
      ],
      [
        "Ġg",
        "as"
      ],
      [
        "Ġsa",
        "f"
      ],
      [
        "ĠS",
        "andy"
      ],
      [
        "ĠT",
        "V"
      ],
      [
        "Ġsh",
        "ore"
      ],
      [
        "ĠJ",
        "im"
      ],
      [
        "um",
        "ber"
      ],
      [
        "ell",
        "y"
      ],
      [
        "Ġbu",
        "ll"
      ],
      [
        "Ġfeel",
        "s"
      ],
      [
        "Ġsel",
        "fish"
      ],
      [
        "L",
        "ila"
      ],
      [
        "l",
        "ight"
      ],
      [
        "p",
        "ill"
      ],
      [
        "v",
        "ous"
      ],
      [
        "Ġb",
        "and"
      ],
      [
        "Ġwa",
        "gon"
      ],
      [
        "er",
        "pill"
      ],
      [
        "ĠB",
        "obby"
      ],
      [
        "ĠM",
        "ummy"
      ],
      [
        "Ġno",
        "d"
      ],
      [
        "if",
        "e"
      ],
      [
        "Ġch",
        "ick"
      ],
      [
        "Ġcat",
        "erpill"
      ],
      [
        "Ġrun",
        "s"
      ],
      [
        "Ġdan",
        "cing"
      ],
      [
        "Ġhid",
        "ing"
      ],
      [
        "ĠTh",
        "ank"
      ],
      [
        "Ġspl",
        "ash"
      ],
      [
        "ĠMr",
        "s"
      ],
      [
        "Ġscream",
        "ed"
      ],
      [
        "Ġwhist",
        "le"
      ],
      [
        "Ġresp",
        "ect"
      ],
      [
        "G",
        "ra"
      ],
      [
        "S",
        "ally"
      ],
      [
        "Ġw",
        "om"
      ],
      [
        "Ġthe",
        "se"
      ],
      [
        "in",
        "ted"
      ],
      [
        "Ġl",
        "ad"
      ],
      [
        "Ġp",
        "izz"
      ],
      [
        "Ġg",
        "ener"
      ],
      [
        "an",
        "ny"
      ],
      [
        "es",
        "e"
      ],
      [
        "ĠM",
        "ar"
      ],
      [
        "Ġpa",
        "w"
      ],
      [
        "Ġtr",
        "ue"
      ],
      [
        "Ġknow",
        "ing"
      ],
      [
        "ĠJohn",
        "ny"
      ],
      [
        "Ġreal",
        "ised"
      ],
      [
        "Ġrock",
        "et"
      ],
      [
        "Ġcla",
        "ss"
      ],
      [
        "Ġcreat",
        "ive"
      ],
      [
        "Ġprom",
        "ise"
      ],
      [
        "Ġthank",
        "ful"
      ],
      [
        "Ġcaterpill",
        "ar"
      ],
      [
        "Ġwom",
        "an"
      ],
      [
        "P",
        "lease"
      ],
      [
        "b",
        "in"
      ],
      [
        "e",
        "b"
      ],
      [
        "r",
        "ated"
      ],
      [
        "Ġs",
        "il"
      ],
      [
        "Ġs",
        "oup"
      ],
      [
        "Ġc",
        "ard"
      ],
      [
        "is",
        "a"
      ],
      [
        "ir",
        "p"
      ],
      [
        "ur",
        "ed"
      ],
      [
        "ĠA",
        "n"
      ],
      [
        "Ġch",
        "ased"
      ],
      [
        "Ġhug",
        "s"
      ],
      [
        "Ġpo",
        "lice"
      ],
      [
        "iz",
        "zy"
      ],
      [
        "ct",
        "us"
      ],
      [
        "Ġsleep",
        "y"
      ],
      [
        "Ġcray",
        "ons"
      ],
      [
        "Ġlad",
        "der"
      ],
      [
        "Ġgener",
        "ous"
      ],
      [
        "E",
        "m"
      ],
      [
        "c",
        "om"
      ],
      [
        "y",
        "ing"
      ],
      [
        "Ġt",
        "id"
      ],
      [
        "Ġt",
        "ag"
      ],
      [
        "Ġd",
        "ependable"
      ],
      [
        "Ġg",
        "ar"
      ],
      [
        "The",
        "re"
      ],
      [
        "Ġsa",
        "ve"
      ],
      [
        "or",
        "s"
      ],
      [
        "Ġn",
        "er"
      ],
      [
        "Ġwe",
        "ak"
      ],
      [
        "Ġre",
        "cor"
      ],
      [
        "Ġca",
        "ctus"
      ],
      [
        "Ġbr",
        "ush"
      ],
      [
        "Ġta",
        "ken"
      ],
      [
        "Ġsk",
        "ipped"
      ],
      [
        "us",
        "ual"
      ],
      [
        "ĠP",
        "eter"
      ],
      [
        "Ġte",
        "st"
      ],
      [
        "Ġun",
        "usual"
      ],
      [
        "Ġapp",
        "les"
      ],
      [
        "Ġpus",
        "h"
      ],
      [
        "Ġdisapp",
        "o"
      ],
      [
        "Ġcir",
        "c"
      ],
      [
        "c",
        "ient"
      ],
      [
        "l",
        "and"
      ],
      [
        "u",
        "ce"
      ],
      [
        "w",
        "el"
      ],
      [
        "Ġt",
        "er"
      ],
      [
        "Ġt",
        "rave"
      ],
      [
        "or",
        "n"
      ],
      [
        "Ġe",
        "m"
      ],
      [
        "Ġk",
        "ing"
      ],
      [
        "Ġan",
        "cient"
      ],
      [
        "Ġle",
        "ad"
      ],
      [
        "Ġfe",
        "ather"
      ],
      [
        "Ġman",
        "ag"
      ],
      [
        "Ġme",
        "asure"
      ],
      [
        "Åĵ",
        "It"
      ],
      [
        "Ġtr",
        "ust"
      ],
      [
        "ump",
        "y"
      ],
      [
        "ap",
        "a"
      ],
      [
        "ac",
        "he"
      ],
      [
        "Ġsong",
        "s"
      ],
      [
        "Ġdes",
        "k"
      ],
      [
        "Ġpower",
        "ful"
      ],
      [
        "Ġner",
        "vous"
      ],
      [
        "D",
        "ad"
      ],
      [
        "i",
        "pp"
      ],
      [
        "i",
        "ant"
      ],
      [
        "Ġb",
        "al"
      ],
      [
        "Ġb",
        "rill"
      ],
      [
        "ĠS",
        "ome"
      ],
      [
        "Ġshe",
        "ll"
      ],
      [
        "Ġst",
        "ret"
      ],
      [
        "oo",
        "f"
      ],
      [
        "ke",
        "ep"
      ],
      [
        "al",
        "s"
      ],
      [
        "um",
        "sy"
      ],
      [
        "Ġco",
        "vered"
      ],
      [
        "Ġkne",
        "e"
      ],
      [
        "Ġche",
        "ese"
      ],
      [
        "Ġtast",
        "e"
      ],
      [
        "Ġje",
        "wel"
      ],
      [
        "Ġtig",
        "er"
      ],
      [
        "Ġvegetable",
        "s"
      ],
      [
        "Ġpizz",
        "a"
      ],
      [
        "Ġter",
        "ri"
      ],
      [
        "Ġbrill",
        "iant"
      ],
      [
        "keep",
        "er"
      ],
      [
        "Ġa",
        "dd"
      ],
      [
        "in",
        "ation"
      ],
      [
        "Ġb",
        "ra"
      ],
      [
        "Ġhe",
        "l"
      ],
      [
        "Ġm",
        "ach"
      ],
      [
        "ĠS",
        "omet"
      ],
      [
        "ĠS",
        "usie"
      ],
      [
        "or",
        "k"
      ],
      [
        "Ġof",
        "ten"
      ],
      [
        "ur",
        "se"
      ],
      [
        "Ġcl",
        "ay"
      ],
      [
        "ust",
        "rated"
      ],
      [
        "Åĵ",
        "That"
      ],
      [
        "Ġplant",
        "s"
      ],
      [
        "umb",
        "led"
      ],
      [
        "Ġrel",
        "ax"
      ],
      [
        "Ġph",
        "one"
      ],
      [
        "Ġem",
        "pt"
      ],
      [
        "g",
        "y"
      ],
      [
        "m",
        "o"
      ],
      [
        "u",
        "p"
      ],
      [
        "Ġf",
        "ather"
      ],
      [
        "Ġg",
        "em"
      ],
      [
        "Ġre",
        "g"
      ],
      [
        "ĠA",
        "lice"
      ],
      [
        "Ġone",
        "s"
      ],
      [
        "Ġtw",
        "irl"
      ],
      [
        "Ġche",
        "w"
      ],
      [
        "ĠAnd",
        "y"
      ],
      [
        "Ġstrong",
        "er"
      ],
      [
        "Ġcr",
        "ack"
      ],
      [
        "Ġunderst",
        "ood"
      ],
      [
        "Ġpretend",
        "ed"
      ],
      [
        "Ġstu",
        "dy"
      ],
      [
        "Ġsnack",
        "s"
      ],
      [
        "Ġmark",
        "et"
      ],
      [
        "Ġben",
        "ch"
      ],
      [
        "ÅĵLet",
        "Ã¢"
      ],
      [
        "Ġgar",
        "age"
      ],
      [
        "Ġdisappo",
        "inted"
      ],
      [
        "Ġempt",
        "y"
      ],
      [
        "A",
        "lice"
      ],
      [
        "u",
        "b"
      ],
      [
        "Ġ",
        "ed"
      ],
      [
        "ed",
        "ient"
      ],
      [
        "Ġh",
        "oney"
      ],
      [
        "Ġsa",
        "ved"
      ],
      [
        "im",
        "p"
      ],
      [
        "Ġso",
        "ck"
      ],
      [
        "Ġon",
        "ce"
      ],
      [
        "ĠB",
        "r"
      ],
      [
        "Ġex",
        "t"
      ],
      [
        "Ġis",
        "land"
      ],
      [
        "ell",
        "a"
      ],
      [
        "Ġv",
        "i"
      ],
      [
        "Ġmo",
        "d"
      ],
      [
        "us",
        "hed"
      ],
      [
        "Ġfr",
        "ustrated"
      ],
      [
        "Ġde",
        "ad"
      ],
      [
        "Ġbright",
        "ly"
      ],
      [
        "ol",
        "a"
      ],
      [
        "Ġfix",
        "ed"
      ],
      [
        "Ġsu",
        "pp"
      ],
      [
        "Ġescap",
        "e"
      ],
      [
        "W",
        "ell"
      ],
      [
        "n",
        "ie"
      ],
      [
        "y",
        "ear"
      ],
      [
        "Ġs",
        "ight"
      ],
      [
        "Ġw",
        "is"
      ],
      [
        "Ġo",
        "ven"
      ],
      [
        "an",
        "a"
      ],
      [
        "Ġst",
        "uff"
      ],
      [
        "Ġr",
        "ing"
      ],
      [
        "Ġsh",
        "ake"
      ],
      [
        "Ġsp",
        "read"
      ],
      [
        "Ġar",
        "row"
      ],
      [
        "ic",
        "ine"
      ],
      [
        "Ġro",
        "ad"
      ],
      [
        "Åĵ",
        "Yes"
      ],
      [
        "Ġcall",
        "ing"
      ],
      [
        "Ġte",
        "am"
      ],
      [
        "Ġmess",
        "y"
      ],
      [
        "air",
        "s"
      ],
      [
        "Ġduck",
        "s"
      ],
      [
        "itten",
        "s"
      ],
      [
        "Ġdir",
        "t"
      ],
      [
        "Ġob",
        "edient"
      ],
      [
        "Ġdist",
        "ance"
      ],
      [
        "Ġdelight",
        "ed"
      ],
      [
        "Ġsol",
        "ve"
      ],
      [
        "Ġeas",
        "y"
      ],
      [
        "Ġgigg",
        "led"
      ],
      [
        "Ġmed",
        "icine"
      ],
      [
        "Ġtom",
        "orrow"
      ],
      [
        "Ġrecor",
        "d"
      ],
      [
        "Ġmanag",
        "ed"
      ],
      [
        "mo",
        "st"
      ],
      [
        "Ġt",
        "ick"
      ],
      [
        "Ġt",
        "ask"
      ],
      [
        "Ġa",
        "w"
      ],
      [
        "Ġc",
        "omet"
      ],
      [
        "Ġp",
        "in"
      ],
      [
        "Ġp",
        "enny"
      ],
      [
        "or",
        "ge"
      ],
      [
        "ĠL",
        "ittle"
      ],
      [
        "Ġwh",
        "is"
      ],
      [
        "Ġgo",
        "ld"
      ],
      [
        "Ġca",
        "bin"
      ],
      [
        "Ġal",
        "most"
      ],
      [
        "Ġme",
        "ant"
      ],
      [
        "Ġdec",
        "or"
      ],
      [
        "ĠD",
        "on"
      ],
      [
        "Ġtake",
        "s"
      ],
      [
        "Ġta",
        "ught"
      ],
      [
        "Ġpa",
        "ssed"
      ],
      [
        "Ġsl",
        "id"
      ],
      [
        "ia",
        "ble"
      ],
      [
        "Ġlove",
        "s"
      ],
      [
        "Ġfr",
        "own"
      ],
      [
        "Ġde",
        "st"
      ],
      [
        "Ġcont",
        "ent"
      ],
      [
        "bo",
        "x"
      ],
      [
        "Ġcho",
        "col"
      ],
      [
        "Ġrel",
        "iable"
      ],
      [
        "Ġinc",
        "red"
      ],
      [
        "Ġpuzz",
        "le"
      ],
      [
        "Ġimpre",
        "ssed"
      ],
      [
        "B",
        "illy"
      ],
      [
        "M",
        "ary"
      ],
      [
        "c",
        "y"
      ],
      [
        "w",
        "ork"
      ],
      [
        "he",
        "never"
      ],
      [
        "Ġa",
        "dded"
      ],
      [
        "Ġf",
        "il"
      ],
      [
        "Ġo",
        "k"
      ],
      [
        "at",
        "ely"
      ],
      [
        "Ġha",
        "ng"
      ],
      [
        "ĠThe",
        "ir"
      ],
      [
        "Ġshe",
        "lf"
      ],
      [
        "Ġst",
        "ream"
      ],
      [
        "ur",
        "ing"
      ],
      [
        "Ġfe",
        "ar"
      ],
      [
        "Ġkn",
        "ocked"
      ],
      [
        "Ġgra",
        "nd"
      ],
      [
        "Ġmo",
        "ving"
      ],
      [
        "Ġor",
        "d"
      ],
      [
        "Ġtur",
        "key"
      ],
      [
        "Ġba",
        "ld"
      ],
      [
        "Ġwhe",
        "el"
      ],
      [
        "Ġgi",
        "ving"
      ],
      [
        "Ġhappen",
        "ing"
      ],
      [
        "Ġlea",
        "f"
      ],
      [
        "oph",
        "ie"
      ],
      [
        "Ġext",
        "ra"
      ],
      [
        "B",
        "e"
      ],
      [
        "j",
        "ect"
      ],
      [
        "u",
        "z"
      ],
      [
        "Ġ",
        "O"
      ],
      [
        "Ġ",
        "icy"
      ],
      [
        "Ġt",
        "ie"
      ],
      [
        "Ġa",
        "v"
      ],
      [
        "Ġs",
        "ighed"
      ],
      [
        "in",
        "a"
      ],
      [
        "re",
        "ady"
      ],
      [
        "Ġp",
        "op"
      ],
      [
        "Ġr",
        "id"
      ],
      [
        "itt",
        "er"
      ],
      [
        "ent",
        "ion"
      ],
      [
        "un",
        "k"
      ],
      [
        "Ġli",
        "z"
      ],
      [
        "Ġdo",
        "lp"
      ],
      [
        "Ġbo",
        "ard"
      ],
      [
        "Ġlo",
        "ck"
      ],
      [
        "Ġsp",
        "end"
      ],
      [
        "ur",
        "ous"
      ],
      [
        "Ġal",
        "ready"
      ],
      [
[...]
